{
    "0": "<unk>",
    "1": "<s>",
    "2": "</s>",
    "3": "<0x00>",
    "4": "<0x01>",
    "5": "<0x02>",
    "6": "<0x03>",
    "7": "<0x04>",
    "8": "<0x05>",
    "9": "<0x06>",
    "10": "<0x07>",
    "11": "<0x08>",
    "12": "<0x09>",
    "13": "<0x0A>",
    "14": "<0x0B>",
    "15": "<0x0C>",
    "16": "<0x0D>",
    "17": "<0x0E>",
    "18": "<0x0F>",
    "19": "<0x10>",
    "20": "<0x11>",
    "21": "<0x12>",
    "22": "<0x13>",
    "23": "<0x14>",
    "24": "<0x15>",
    "25": "<0x16>",
    "26": "<0x17>",
    "27": "<0x18>",
    "28": "<0x19>",
    "29": "<0x1A>",
    "30": "<0x1B>",
    "31": "<0x1C>",
    "32": "<0x1D>",
    "33": "<0x1E>",
    "34": "<0x1F>",
    "35": "<0x20>",
    "36": "<0x21>",
    "37": "<0x22>",
    "38": "<0x23>",
    "39": "<0x24>",
    "40": "<0x25>",
    "41": "<0x26>",
    "42": "<0x27>",
    "43": "<0x28>",
    "44": "<0x29>",
    "45": "<0x2A>",
    "46": "<0x2B>",
    "47": "<0x2C>",
    "48": "<0x2D>",
    "49": "<0x2E>",
    "50": "<0x2F>",
    "51": "<0x30>",
    "52": "<0x31>",
    "53": "<0x32>",
    "54": "<0x33>",
    "55": "<0x34>",
    "56": "<0x35>",
    "57": "<0x36>",
    "58": "<0x37>",
    "59": "<0x38>",
    "60": "<0x39>",
    "61": "<0x3A>",
    "62": "<0x3B>",
    "63": "<0x3C>",
    "64": "<0x3D>",
    "65": "<0x3E>",
    "66": "<0x3F>",
    "67": "<0x40>",
    "68": "<0x41>",
    "69": "<0x42>",
    "70": "<0x43>",
    "71": "<0x44>",
    "72": "<0x45>",
    "73": "<0x46>",
    "74": "<0x47>",
    "75": "<0x48>",
    "76": "<0x49>",
    "77": "<0x4A>",
    "78": "<0x4B>",
    "79": "<0x4C>",
    "80": "<0x4D>",
    "81": "<0x4E>",
    "82": "<0x4F>",
    "83": "<0x50>",
    "84": "<0x51>",
    "85": "<0x52>",
    "86": "<0x53>",
    "87": "<0x54>",
    "88": "<0x55>",
    "89": "<0x56>",
    "90": "<0x57>",
    "91": "<0x58>",
    "92": "<0x59>",
    "93": "<0x5A>",
    "94": "<0x5B>",
    "95": "<0x5C>",
    "96": "<0x5D>",
    "97": "<0x5E>",
    "98": "<0x5F>",
    "99": "<0x60>",
    "100": "<0x61>",
    "101": "<0x62>",
    "102": "<0x63>",
    "103": "<0x64>",
    "104": "<0x65>",
    "105": "<0x66>",
    "106": "<0x67>",
    "107": "<0x68>",
    "108": "<0x69>",
    "109": "<0x6A>",
    "110": "<0x6B>",
    "111": "<0x6C>",
    "112": "<0x6D>",
    "113": "<0x6E>",
    "114": "<0x6F>",
    "115": "<0x70>",
    "116": "<0x71>",
    "117": "<0x72>",
    "118": "<0x73>",
    "119": "<0x74>",
    "120": "<0x75>",
    "121": "<0x76>",
    "122": "<0x77>",
    "123": "<0x78>",
    "124": "<0x79>",
    "125": "<0x7A>",
    "126": "<0x7B>",
    "127": "<0x7C>",
    "128": "<0x7D>",
    "129": "<0x7E>",
    "130": "<0x7F>",
    "131": "<0x80>",
    "132": "<0x81>",
    "133": "<0x82>",
    "134": "<0x83>",
    "135": "<0x84>",
    "136": "<0x85>",
    "137": "<0x86>",
    "138": "<0x87>",
    "139": "<0x88>",
    "140": "<0x89>",
    "141": "<0x8A>",
    "142": "<0x8B>",
    "143": "<0x8C>",
    "144": "<0x8D>",
    "145": "<0x8E>",
    "146": "<0x8F>",
    "147": "<0x90>",
    "148": "<0x91>",
    "149": "<0x92>",
    "150": "<0x93>",
    "151": "<0x94>",
    "152": "<0x95>",
    "153": "<0x96>",
    "154": "<0x97>",
    "155": "<0x98>",
    "156": "<0x99>",
    "157": "<0x9A>",
    "158": "<0x9B>",
    "159": "<0x9C>",
    "160": "<0x9D>",
    "161": "<0x9E>",
    "162": "<0x9F>",
    "163": "<0xA0>",
    "164": "<0xA1>",
    "165": "<0xA2>",
    "166": "<0xA3>",
    "167": "<0xA4>",
    "168": "<0xA5>",
    "169": "<0xA6>",
    "170": "<0xA7>",
    "171": "<0xA8>",
    "172": "<0xA9>",
    "173": "<0xAA>",
    "174": "<0xAB>",
    "175": "<0xAC>",
    "176": "<0xAD>",
    "177": "<0xAE>",
    "178": "<0xAF>",
    "179": "<0xB0>",
    "180": "<0xB1>",
    "181": "<0xB2>",
    "182": "<0xB3>",
    "183": "<0xB4>",
    "184": "<0xB5>",
    "185": "<0xB6>",
    "186": "<0xB7>",
    "187": "<0xB8>",
    "188": "<0xB9>",
    "189": "<0xBA>",
    "190": "<0xBB>",
    "191": "<0xBC>",
    "192": "<0xBD>",
    "193": "<0xBE>",
    "194": "<0xBF>",
    "195": "<0xC0>",
    "196": "<0xC1>",
    "197": "<0xC2>",
    "198": "<0xC3>",
    "199": "<0xC4>",
    "200": "<0xC5>",
    "201": "<0xC6>",
    "202": "<0xC7>",
    "203": "<0xC8>",
    "204": "<0xC9>",
    "205": "<0xCA>",
    "206": "<0xCB>",
    "207": "<0xCC>",
    "208": "<0xCD>",
    "209": "<0xCE>",
    "210": "<0xCF>",
    "211": "<0xD0>",
    "212": "<0xD1>",
    "213": "<0xD2>",
    "214": "<0xD3>",
    "215": "<0xD4>",
    "216": "<0xD5>",
    "217": "<0xD6>",
    "218": "<0xD7>",
    "219": "<0xD8>",
    "220": "<0xD9>",
    "221": "<0xDA>",
    "222": "<0xDB>",
    "223": "<0xDC>",
    "224": "<0xDD>",
    "225": "<0xDE>",
    "226": "<0xDF>",
    "227": "<0xE0>",
    "228": "<0xE1>",
    "229": "<0xE2>",
    "230": "<0xE3>",
    "231": "<0xE4>",
    "232": "<0xE5>",
    "233": "<0xE6>",
    "234": "<0xE7>",
    "235": "<0xE8>",
    "236": "<0xE9>",
    "237": "<0xEA>",
    "238": "<0xEB>",
    "239": "<0xEC>",
    "240": "<0xED>",
    "241": "<0xEE>",
    "242": "<0xEF>",
    "243": "<0xF0>",
    "244": "<0xF1>",
    "245": "<0xF2>",
    "246": "<0xF3>",
    "247": "<0xF4>",
    "248": "<0xF5>",
    "249": "<0xF6>",
    "250": "<0xF7>",
    "251": "<0xF8>",
    "252": "<0xF9>",
    "253": "<0xFA>",
    "254": "<0xFB>",
    "255": "<0xFC>",
    "256": "<0xFD>",
    "257": "<0xFE>",
    "258": "<0xFF>",
    "259": "\u2581\u2581",
    "260": "\u2581t",
    "261": "er",
    "262": "in",
    "263": "\u2581a",
    "264": "en",
    "265": "on",
    "266": "\u2581th",
    "267": "es",
    "268": "\u2581\u2581\u2581\u2581",
    "269": "\u2581s",
    "270": "\u2581d",
    "271": "at",
    "272": "or",
    "273": "an",
    "274": "\u2581c",
    "275": "is",
    "276": "re",
    "277": "it",
    "278": "\u2581the",
    "279": "ar",
    "280": "le",
    "281": "\u2581w",
    "282": "\u2581p",
    "283": "ou",
    "284": "al",
    "285": "\u2581f",
    "286": "\u2581m",
    "287": "ed",
    "288": "\u2581o",
    "289": "\u2581b",
    "290": "om",
    "291": "ion",
    "292": "ing",
    "293": "ic",
    "294": "as",
    "295": "el",
    "296": "ent",
    "297": "\u2581in",
    "298": "\u2581h",
    "299": "nd",
    "300": "et",
    "301": "\u2581l",
    "302": "\u2581n",
    "303": "st",
    "304": "\u2581to",
    "305": "ch",
    "306": "\u2581I",
    "307": "ro",
    "308": "\u2581\u2581\u2581\u2581\u2581\u2581\u2581\u2581",
    "309": "il",
    "310": "\u2581of",
    "311": "de",
    "312": "ct",
    "313": "\u2581(",
    "314": "am",
    "315": "\u2581C",
    "316": "\u2581de",
    "317": "\u2581S",
    "318": "\u2581u",
    "319": "\u2581A",
    "320": "\u2581\\",
    "321": "\u2581e",
    "322": "\u2581and",
    "323": "\u2581T",
    "324": "ol",
    "325": "\u2581v",
    "326": "im",
    "327": "ot",
    "328": "ad",
    "329": "ut",
    "330": "\u2581g",
    "331": "em",
    "332": "ur",
    "333": "id",
    "334": "\u2581*",
    "335": "ig",
    "336": "ra",
    "337": "\u2581re",
    "338": "\u2581is",
    "339": "qu",
    "340": "ow",
    "341": "\u2581M",
    "342": "est",
    "343": "\u2581y",
    "344": "se",
    "345": "ve",
    "346": "ce",
    "347": "ie",
    "348": "un",
    "349": "\u2581P",
    "350": "\u2581B",
    "351": "ag",
    "352": "ul",
    "353": "\u2581=",
    "354": "he",
    "355": "end",
    "356": "ode",
    "357": "ter",
    "358": "ment",
    "359": "os",
    "360": "\u2581D",
    "361": "if",
    "362": "ation",
    "363": "\u2581for",
    "364": "\u2581r",
    "365": "\u2581L",
    "366": "\u2581you",
    "367": "\u2581be",
    "368": "ly",
    "369": "ver",
    "370": "ab",
    "371": "te",
    "372": "\u2581it",
    "373": "\u2581on",
    "374": "ri",
    "375": "us",
    "376": "\u2581\"",
    "377": "\u2581wh",
    "378": "\u2581con",
    "379": "\u2581H",
    "380": "\u2581st",
    "381": "ir",
    "382": "\u2581E",
    "383": "\u2581F",
    "384": "ck",
    "385": "\u2581an",
    "386": "th",
    "387": "eg",
    "388": "ay",
    "389": "ith",
    "390": "\u2581R",
    "391": "ist",
    "392": "and",
    "393": "\u2581that",
    "394": "\u2581al",
    "395": "\u2581$",
    "396": "\u2581#",
    "397": "od",
    "398": "um",
    "399": "\u2581W",
    "400": "ht",
    "401": "code",
    "402": "\u2581G",
    "403": "ate",
    "404": "ess",
    "405": "\u2581N",
    "406": "ere",
    "407": "pp",
    "408": "\u2581as",
    "409": "\u2581se",
    "410": "\u2581pro",
    "411": "\u2581with",
    "412": "pe",
    "413": "\u2581k",
    "414": "ers",
    "415": "pt",
    "416": ");",
    "417": "lo",
    "418": "\u2581\u2581\u2581\u2581\u2581",
    "419": "\u2581com",
    "420": "ame",
    "421": "\u2581`",
    "422": "\u2581Com",
    "423": "ia",
    "424": "ant",
    "425": "\u2581la",
    "426": "\u2581{",
    "427": "\u2581en",
    "428": "ction",
    "429": "\u2581ex",
    "430": "ld",
    "431": "ub",
    "432": "\u2581j",
    "433": "la",
    "434": "ue",
    "435": "\u2581J",
    "436": "ich",
    "437": "\u2581do",
    "438": "\u2581O",
    "439": "\u2581qu",
    "440": "iv",
    "441": "ort",
    "442": "art",
    "443": "\u2581un",
    "444": "\u2581##",
    "445": "\u2581this",
    "446": "ke",
    "447": "\u2581ha",
    "448": "\u2581-",
    "449": "out",
    "450": "\u2581The",
    "451": "\u2581not",
    "452": "\u2581ne",
    "453": "ill",
    "454": "\u2581le",
    "455": "ci",
    "456": "rom",
    "457": "ine",
    "458": "//",
    "459": "op",
    "460": "egin",
    "461": "\u2581Comment",
    "462": "\u2581\u2581\u2581\u2581\u2581\u2581\u2581\u2581\u2581\u2581\u2581\u2581\u2581\u2581\u2581\u2581",
    "463": "begin",
    "464": "\u0441\u0442",
    "465": "ass",
    "466": "iz",
    "467": ").",
    "468": "og",
    "469": "\u2581\u043f",
    "470": "\u2581or",
    "471": "\u2581was",
    "472": "\u2581at",
    "473": "our",
    "474": "\u2581i",
    "475": "ain",
    "476": "\u2581K",
    "477": "\u043d\u0430",
    "478": "\u2581V",
    "479": "ge",
    "480": "\u2581su",
    "481": "ap",
    "482": "age",
    "483": "ould",
    "484": "ne",
    "485": "av",
    "486": "xt",
    "487": "ore",
    "488": "ile",
    "489": "--",
    "490": "\u2581\u0432",
    "491": "\u2581by",
    "492": "li",
    "493": "ath",
    "494": "\u0440\u0430",
    "495": "ber",
    "496": "ach",
    "497": "all",
    "498": "\u2581Th",
    "499": "ult",
    "500": "\u2581}",
    "501": "\u2581U",
    "502": "\u2581us",
    "503": "\u2581z",
    "504": "ust",
    "505": "\u2581have",
    "506": "lic",
    "507": "\u043d\u0438",
    "508": "\u2581can",
    "509": "tr",
    "510": "com",
    "511": "),",
    "512": "\u2581In",
    "513": "ind",
    "514": "ell",
    "515": "\u2581from",
    "516": "\u043e\u0432",
    "517": "to",
    "518": "\u2581[",
    "519": "able",
    "520": "ost",
    "521": "\u2581ch",
    "522": "ect",
    "523": "ight",
    "524": "int",
    "525": "\u2581'",
    "526": "\u2581are",
    "527": "\u2581im",
    "528": "\u2581sh",
    "529": "\u2581<",
    "530": "\u2581An",
    "531": "\u2581\u0441",
    "532": "ata",
    "533": "ire",
    "534": "\u2581tr",
    "535": "con",
    "536": "ord",
    "537": "ity",
    "538": "ard",
    "539": "\u2581\u2581\u2581\u2581\u2581\u2581",
    "540": "\u2581he",
    "541": "\u2581but",
    "542": "oc",
    "543": "=\"",
    "544": "\u2581pr",
    "545": "ure",
    "546": "per",
    "547": "ack",
    "548": "ork",
    "549": "ong",
    "550": "ans",
    "551": "\u043a\u043e",
    "552": "ple",
    "553": "\u2581des",
    "554": "ok",
    "555": "orm",
    "556": "wer",
    "557": "ak",
    "558": "pr",
    "559": "ase",
    "560": "\u2581el",
    "561": "ph",
    "562": "ac",
    "563": "\u2581und",
    "564": "\u2581ar",
    "565": "\u2581if",
    "566": "ud",
    "567": "ps",
    "568": "ite",
    "569": "ble",
    "570": "\u043d\u043e",
    "571": "fer",
    "572": "pl",
    "573": "ive",
    "574": "ang",
    "575": "ens",
    "576": "\u0440\u043e",
    "577": "\u2581so",
    "578": "so",
    "579": "ast",
    "580": "()",
    "581": "swer",
    "582": "ru",
    "583": "ies",
    "584": "\u2581:",
    "585": "au",
    "586": "ov",
    "587": "\u0440\u0435",
    "588": "\u0433\u043e",
    "589": "\u2581der",
    "590": "\u2581my",
    "591": "\u2581we",
    "592": "\u2581me",
    "593": "nt",
    "594": "\u2581ad",
    "595": "urn",
    "596": "\u2581your",
    "597": "://",
    "598": "are",
    "599": "\u2581all",
    "600": "ff",
    "601": "io",
    "602": "estion",
    "603": "ime",
    "604": "\u2581er",
    "605": "lass",
    "606": "\u2581\u0438",
    "607": "\u2581which",
    "608": "ome",
    "609": "ont",
    "610": "\u2581par",
    "611": "\u2581ma",
    "612": "\u2581Y",
    "613": "\",",
    "614": "\u2581\u043e",
    "615": "ft",
    "616": "ial",
    "617": "cc",
    "618": "ound",
    "619": "\u2581li",
    "620": "\u2581res",
    "621": "eth",
    "622": "ject",
    "623": "\u2581app",
    "624": "\u2581St",
    "625": "ice",
    "626": "\u2581am",
    "627": "act",
    "628": "\u2581del",
    "629": "gr",
    "630": "ated",
    "631": "ier",
    "632": "\u2581\u2581\u2581\u2581\u2581\u2581\u2581\u2581\u2581\u2581\u2581\u2581",
    "633": "\u2581ab",
    "634": "\u2581et",
    "635": "ally",
    "636": "..",
    "637": "port",
    "638": "ik",
    "639": "\u2581per",
    "640": "\u2581cont",
    "641": "\u0440\u0438",
    "642": "\u043a\u0430",
    "643": "ser",
    "644": "\u043b\u0438",
    "645": "ll",
    "646": "iew",
    "647": "ign",
    "648": "_{",
    "649": "put",
    "650": "one",
    "651": "unction",
    "652": "\u2581di",
    "653": "ary",
    "654": "ition",
    "655": "ma",
    "656": "\u0435\u043d",
    "657": "get",
    "658": "\u2581lo",
    "659": "\u2581val",
    "660": "\u2581Q",
    "661": "ran",
    "662": "\u2581\u0434",
    "663": "ence",
    "664": "\u2581work",
    "665": "\u2581\u043d\u0430",
    "666": "ip",
    "667": "item",
    "668": "ype",
    "669": "\u2581&",
    "670": "\u2581his",
    "671": "\u2581use",
    "672": "der",
    "673": "\u2581Answer",
    "674": "\u2581will",
    "675": "ize",
    "676": "\u0442\u0430",
    "677": "low",
    "678": "\u2581Ch",
    "679": "\u2581get",
    "680": "ide",
    "681": "ous",
    "682": "ink",
    "683": "ption",
    "684": "\u043b\u0430",
    "685": "turn",
    "686": "ung",
    "687": "ec",
    "688": "ug",
    "689": "form",
    "690": "res",
    "691": "htt",
    "692": "oug",
    "693": "\u043b\u044c",
    "694": "\u2581no",
    "695": "cl",
    "696": "\u2581ro",
    "697": "\u2581one",
    "698": "tt",
    "699": "cri",
    "700": "du",
    "701": "\u2581up",
    "702": "\u0442\u043e",
    "703": "(\"",
    "704": "\u2581ob",
    "705": "we",
    "706": "ory",
    "707": "\u2581est",
    "708": "ery",
    "709": "iel",
    "710": "str",
    "711": "ob",
    "712": "\u2581que",
    "713": "ian",
    "714": "\u2581out",
    "715": "\u2581pl",
    "716": "\u2581new",
    "717": "\u043a\u0438",
    "718": "\u2581+",
    "719": "ry",
    "720": "oth",
    "721": "ther",
    "722": "\u2581var",
    "723": "\u2581would",
    "724": "\u2581ser",
    "725": "tern",
    "726": "text",
    "727": "\u2581there",
    "728": "ish",
    "729": "ror",
    "730": "\u0442\u0435",
    "731": "\u2581set",
    "732": "\u2581@",
    "733": "\u2581\u043f\u043e",
    "734": "\u2581te",
    "735": "ex",
    "736": "\u2581return",
    "737": "ail",
    "738": "\u2581any",
    "739": "\u2581It",
    "740": "\u2581function",
    "741": "{\\",
    "742": "',",
    "743": "\u00e9s",
    "744": "ale",
    "745": "\u0430\u043d",
    "746": "\u2581when",
    "747": "ib",
    "748": "\u2581go",
    "749": "ance",
    "750": "\u2581had",
    "751": "\u2581Qu",
    "752": "\u2581comp",
    "753": "\u043b\u0435",
    "754": "\u2581\u0437",
    "755": "math",
    "756": "\u2581has",
    "757": "\u2581\u043c",
    "758": "\u2581pre",
    "759": "ener",
    "760": "\u2581part",
    "761": "elf",
    "762": "\u2581die",
    "763": "\u2581like",
    "764": "ray",
    "765": "irst",
    "766": "\u2581dis",
    "767": "\u2581man",
    "768": "rit",
    "769": "\u2581then",
    "770": "\u2581class",
    "771": "pro",
    "772": "\u2581po",
    "773": "\u2581using",
    "774": "eb",
    "775": "\u2581code",
    "776": "own",
    "777": "\u2581some",
    "778": "ces",
    "779": "\u2581$\\",
    "780": "\u0435\u0440",
    "781": "lect",
    "782": "\u2581au",
    "783": "isch",
    "784": "\u2581col",
    "785": "\u2581\u2013",
    "786": "up",
    "787": "ons",
    "788": "\u2581add",
    "789": "ild",
    "790": "iss",
    "791": "val",
    "792": "ount",
    "793": "les",
    "794": "vent",
    "795": "\u2581\u2581\u2581\u2581\u2581\u2581\u2581\u2581\u2581\u2581\u2581\u2581\u2581",
    "796": "\u2581Z",
    "797": "In",
    "798": "row",
    "799": "ear",
    "800": "ations",
    "801": "ah",
    "802": "que",
    "803": "ublic",
    "804": "ank",
    "805": "\u2581sp",
    "806": "\u2581Wh",
    "807": "----",
    "808": "sk",
    "809": "ew",
    "810": "ags",
    "811": "\u0442\u0438",
    "812": "ann",
    "813": "\u2581\u2014",
    "814": "ert",
    "815": "ace",
    "816": "sch",
    "817": "\u2581need",
    "818": "\u2581\u00e0",
    "819": "ien",
    "820": "ough",
    "821": "\u043d\u0435",
    "822": "\u2581def",
    "823": "ij",
    "824": "ern",
    "825": "\u2581what",
    "826": "\u2581Ar",
    "827": "wo",
    "828": "ml",
    "829": "</",
    "830": "\u2581Re",
    "831": "\u2581es",
    "832": "\u2581inst",
    "833": "bo",
    "834": "az",
    "835": "\u2581###",
    "836": "\u2581\u0431",
    "837": "erm",
    "838": "\u2581Al",
    "839": "led",
    "840": "\u0434\u0430",
    "841": "ten",
    "842": "set",
    "843": "\u043b\u043e",
    "844": "\u2581comm",
    "845": "sh",
    "846": "\u0432\u0430",
    "847": "\u2581/",
    "848": "\u2581data",
    "849": "\u2581//",
    "850": "](",
    "851": "\u2581str",
    "852": "ose",
    "853": "\u2581Un",
    "854": "ven",
    "855": "St",
    "856": "...",
    "857": "\u2581\u0421",
    "858": "yst",
    "859": "\u2581\u00ab",
    "860": "ick",
    "861": "ix",
    "862": "par",
    "863": "\u2581\u0443",
    "864": "\u2581want",
    "865": "ng",
    "866": "ote",
    "867": "\u2581gr",
    "868": "\u2581du",
    "869": "\u2581.",
    "870": "und",
    "871": "\u2581only",
    "872": "\u2581sa",
    "873": "ely",
    "874": "vers",
    "875": "\u2581ent",
    "876": "))",
    "877": "('",
    "878": "\u2581mod",
    "879": "ava",
    "880": "ton",
    "881": "\u2581should",
    "882": "ement",
    "883": "\u2581form",
    "884": "\u2581also",
    "885": "\u2581sc",
    "886": "ings",
    "887": "\u2581You",
    "888": "\u00f3n",
    "889": "\u2581kn",
    "890": "();",
    "891": "\u2581|",
    "892": "\u2581were",
    "893": "ss",
    "894": "\u2581Question",
    "895": "ise",
    "896": "\u2581they",
    "897": "\u2581De",
    "898": "ond",
    "899": "\u2581sol",
    "900": "\u2581fol",
    "901": "\u2581more",
    "902": "\u2581her",
    "903": "\u2581_",
    "904": "\u2581\u00e9",
    "905": "atch",
    "906": "fter",
    "907": "\u2581cre",
    "908": "lock",
    "909": "tring",
    "910": "\u2581This",
    "911": "ze",
    "912": "ado",
    "913": "ull",
    "914": "ger",
    "915": "be",
    "916": "\u2581other",
    "917": "\u2581Tags",
    "918": "ution",
    "919": "ict",
    "920": "\u2581how",
    "921": "\u2581x",
    "922": "\u2581Se",
    "923": "\u2581che",
    "924": "cript",
    "925": "\u2581just",
    "926": "\u2581pos",
    "927": "ange",
    "928": "ific",
    "929": "ree",
    "930": "}}",
    "931": "\u2581time",
    "932": "app",
    "933": "\u043d\u044b",
    "934": "\u2581file",
    "935": "ark",
    "936": "ical",
    "937": "\u2581first",
    "938": "\u2581int",
    "939": "\u2581\u0412",
    "940": "\u2581He",
    "941": "ta",
    "942": "ument",
    "943": "ors",
    "944": "lement",
    "945": "rac",
    "946": "\u2581ag",
    "947": "\u2581does",
    "948": "yn",
    "949": "read",
    "950": "ual",
    "951": "\u2581Le",
    "952": "ys",
    "953": "\u2581em",
    "954": "\u2581num",
    "955": "vel",
    "956": "\u0434\u0438",
    "957": "over",
    "958": "\u2581dif",
    "959": "ethod",
    "960": "\u2581If",
    "961": "\u2581spe",
    "962": "ym",
    "963": "\u2581them",
    "964": "\u2581into",
    "965": "\u2581\u2581\u2581\u2581\u2581\u2581\u2581\u2581\u2581\u2581",
    "966": "\u2581les",
    "967": "\u2581its",
    "968": "ese",
    "969": "ield",
    "970": "\u2581public",
    "971": "\u2581\u041f",
    "972": "\u2581den",
    "973": "ystem",
    "974": "of",
    "975": "\u2581over",
    "976": "->",
    "977": "\u2581fil",
    "978": "name",
    "979": "inal",
    "980": "\u2581il",
    "981": "ample",
    "982": "\u2581way",
    "983": "ica",
    "984": "\u0432\u043e",
    "985": "cess",
    "986": "itt",
    "987": "uch",
    "988": "\u2581where",
    "989": "\u043c\u0438",
    "990": "org",
    "991": "https",
    "992": "\u2581vo",
    "993": "ient",
    "994": "ove",
    "995": "\u2581value",
    "996": "eng",
    "997": "\u2581La",
    "998": "^{",
    "999": "ref",
    "1000": "ied",
    "1001": "ER",
    "1002": "\u2581stat",
    "1003": "fig",
    "1004": "me",
    "1005": "\u2581von",
    "1006": "\u2581inter",
    "1007": "roid",
    "1008": "ater",
    "1009": "\u2581their",
    "1010": "\u2581bet",
    "1011": "\u2581ein",
    "1012": "}\\",
    "1013": "\">",
    "1014": "\u2581sub",
    "1015": "\u2581op",
    "1016": "\u2581don",
    "1017": "ty",
    "1018": "\u2581try",
    "1019": "\u2581Pro",
    "1020": "\u2581tra",
    "1021": "\u2581same",
    "1022": "ep",
    "1023": "\u2581two",
    "1024": "\u2581name",
    "1025": "old",
    "1026": "let",
    "1027": "\u2581sim",
    "1028": "sp",
    "1029": "\u2581av",
    "1030": "bre",
    "1031": "blem",
    "1032": "ey",
    "1033": "\u2581could",
    "1034": "\u2581cor",
    "1035": "\u2581acc",
    "1036": "ays",
    "1037": "cre",
    "1038": "urr",
    "1039": "si",
    "1040": "\u2581const",
    "1041": "ues",
    "1042": "}$",
    "1043": "View",
    "1044": "\u2581act",
    "1045": "\u2581bo",
    "1046": "\u2581\u043a\u043e",
    "1047": "\u2581som",
    "1048": "\u2581about",
    "1049": "land",
    "1050": "mer",
    "1051": "\u2581list",
    "1052": "cal",
    "1053": "\u2581import",
    "1054": "col",
    "1055": "\u2581na",
    "1056": "na",
    "1057": "::",
    "1058": "\u2581who",
    "1059": "\u2581error",
    "1060": "\u2581X",
    "1061": "ator",
    "1062": "ext",
    "1063": "\u2581been",
    "1064": "\u00e9r",
    "1065": "\u2581run",
    "1066": "pos",
    "1067": "\u2581cl",
    "1068": "**",
    "1069": "\u2581\u041a",
    "1070": "ular",
    "1071": "ause",
    "1072": "\u2581reg",
    "1073": "\u2581know",
    "1074": "\u2581see",
    "1075": "\u2581him",
    "1076": "ning",
    "1077": "\u2581\u0437\u0430",
    "1078": "ates",
    "1079": "fore",
    "1080": "ions",
    "1081": "\u2581hel",
    "1082": "ute",
    "1083": "\u2581rem",
    "1084": "\u2581\u0433\u043e",
    "1085": "\u2581Mar",
    "1086": "\u0440\u0443",
    "1087": "vice",
    "1088": "irect",
    "1089": "ner",
    "1090": "\u2581under",
    "1091": "rib",
    "1092": "hr",
    "1093": "\u0447\u0435",
    "1094": "\u2581As",
    "1095": "\u2581end",
    "1096": "ember",
    "1097": "\u2581\u0430",
    "1098": "\u2581att",
    "1099": "ina",
    "1100": "son",
    "1101": "\u2581follow",
    "1102": "\u2581Sch",
    "1103": "pect",
    "1104": "\u2581rel",
    "1105": "\u2581So",
    "1106": "\u2581look",
    "1107": "abel",
    "1108": "\u2581problem",
    "1109": "\u2581van",
    "1110": "strong",
    "1111": "co",
    "1112": "pon",
    "1113": "ca",
    "1114": "ada",
    "1115": "\":",
    "1116": "cond",
    "1117": "amb",
    "1118": "},",
    "1119": "quest",
    "1120": "\u2581aut",
    "1121": "\u2581result",
    "1122": "\u2581may",
    "1123": "Re",
    "1124": "http",
    "1125": "):",
    "1126": "\u2581And",
    "1127": "red",
    "1128": "\u2581How",
    "1129": "po",
    "1130": "\u0441\u043a\u043e",
    "1131": "att",
    "1132": "oup",
    "1133": "ced",
    "1134": "\u2581type",
    "1135": "\u2581than",
    "1136": "\u2581cons",
    "1137": "uf",
    "1138": "\u0446\u0438",
    "1139": "\u2581question",
    "1140": "raph",
    "1141": "igh",
    "1142": "\u2581\u041c",
    "1143": "\u2581htt",
    "1144": "ins",
    "1145": "den",
    "1146": "\u2581da",
    "1147": "\u2581ver",
    "1148": "oh",
    "1149": "\u2581=>",
    "1150": "riv",
    "1151": "ude",
    "1152": "\u2581For",
    "1153": "\u2581ra",
    "1154": "frac",
    "1155": "\u043c\u0430",
    "1156": "\u2581after",
    "1157": "}{",
    "1158": "\u2581method",
    "1159": "\")",
    "1160": "amp",
    "1161": "ash",
    "1162": "\u2581rec",
    "1163": "\u2581differ",
    "1164": "ON",
    "1165": "ax",
    "1166": "ament",
    "1167": "ource",
    "1168": "Con",
    "1169": "its",
    "1170": "Name",
    "1171": "man",
    "1172": "\u2581bec",
    "1173": "che",
    "1174": "\u2581En",
    "1175": "aj",
    "1176": "\u2581gener",
    "1177": "IN",
    "1178": "\u2581id",
    "1179": "ages",
    "1180": "\u2581loc",
    "1181": "fo",
    "1182": "br",
    "1183": "\u2581she",
    "1184": "Pro",
    "1185": "\u2581una",
    "1186": "\u2581\u043a",
    "1187": "eta",
    "1188": "log",
    "1189": "olog",
    "1190": "\u2581sur",
    "1191": "arg",
    "1192": "\u2581--",
    "1193": "kt",
    "1194": "(\\",
    "1195": "min",
    "1196": "\u2581line",
    "1197": "\u2581vari",
    "1198": "\u0441\u044f",
    "1199": "ics",
    "1200": "\u043d\u044f",
    "1201": "very",
    "1202": "add",
    "1203": "\u2581object",
    "1204": "Id",
    "1205": "\u2581But",
    "1206": "\u2581case",
    "1207": "\u2581make",
    "1208": "\u2581cal",
    "1209": "\u2581pass",
    "1210": "\u0441\u044c",
    "1211": "ession",
    "1212": "net",
    "1213": ".\"",
    "1214": "\u2581\u0433",
    "1215": "\u00e4r",
    "1216": "\u0434\u0435",
    "1217": "no",
    "1218": "ating",
    "1219": "ato",
    "1220": "line",
    "1221": "\u0432\u0438",
    "1222": "\u2581Ex",
    "1223": "\u2581ass",
    "1224": "\u2581vers",
    "1225": "\u043b\u044f",
    "1226": "\u2581ed",
    "1227": "umn",
    "1228": "other",
    "1229": "\u0441\u0442\u0430",
    "1230": "ative",
    "1231": "String",
    "1232": "\u2581los",
    "1233": "wn",
    "1234": "\u2581answer",
    "1235": "\u2581let",
    "1236": "\u2581pe",
    "1237": "ents",
    "1238": "\u2581fe",
    "1239": "ince",
    "1240": "ni",
    "1241": "ider",
    "1242": "ows",
    "1243": "\u2581test",
    "1244": "\u2581here",
    "1245": "roll",
    "1246": "\u2581call",
    "1247": "ruct",
    "1248": "\u2581pol",
    "1249": "ait",
    "1250": "\u2581back",
    "1251": "ho",
    "1252": "Ex",
    "1253": "ress",
    "1254": "ST",
    "1255": "ried",
    "1256": "date",
    "1257": "\u0435\u0442",
    "1258": "\u2581did",
    "1259": "ting",
    "1260": "\u2581El",
    "1261": "\u2581dem",
    "1262": ")$",
    "1263": "\u043e\u0432\u0430",
    "1264": "urrent",
    "1265": "lace",
    "1266": "right",
    "1267": "ren",
    "1268": "\u043f\u043e",
    "1269": "\u2581each",
    "1270": "cy",
    "1271": "block",
    "1272": "data",
    "1273": "\u2581%",
    "1274": "\u2581ac",
    "1275": "\u2581==",
    "1276": "\u00fcr",
    "1277": "\u2581por",
    "1278": "ask",
    "1279": "arch",
    "1280": "ames",
    "1281": "\u2581Con",
    "1282": "\u0447\u0430",
    "1283": "\u2581off",
    "1284": "\u2581find",
    "1285": "cont",
    "1286": "\u2581now",
    "1287": "work",
    "1288": "ational",
    "1289": "dd",
    "1290": "ci\u00f3n",
    "1291": "\u2581\u0410",
    "1292": "ault",
    "1293": "List",
    "1294": "\u2581ext",
    "1295": "urs",
    "1296": "ake",
    "1297": "ule",
    "1298": "\u2581point",
    "1299": "AT",
    "1300": "aut",
    "1301": "\u2581trans",
    "1302": "\u2581co",
    "1303": "\u2581read",
    "1304": "\u2581used",
    "1305": "\u0441\u043a\u0438",
    "1306": "ari",
    "1307": "LE",
    "1308": "eter",
    "1309": "oun",
    "1310": "ever",
    "1311": "self",
    "1312": "ined",
    "1313": "idth",
    "1314": "ux",
    "1315": "js",
    "1316": "\u2581such",
    "1317": "\u2581Is",
    "1318": "\u00e9e",
    "1319": "ful",
    "1320": "\u2581dist",
    "1321": "\u2581bu",
    "1322": "itemize",
    "1323": "Cont",
    "1324": "je",
    "1325": "\u0441\u0438",
    "1326": "\u2581prov",
    "1327": "bb",
    "1328": "ward",
    "1329": "esent",
    "1330": "erson",
    "1331": "anks",
    "1332": "wh",
    "1333": "not",
    "1334": "\u2581We",
    "1335": "ka",
    "1336": "rop",
    "1337": "atur",
    "1338": "als",
    "1339": "\u2581bel",
    "1340": "\u00f6r",
    "1341": "fr",
    "1342": "\u2581example",
    "1343": "\u2581incl",
    "1344": "amil",
    "1345": "\u2581\u0440\u0430",
    "1346": "\u2581\u201c",
    "1347": "\u2581string",
    "1348": "\u2581think",
    "1349": "Th",
    "1350": "\u2581tem",
    "1351": "ave",
    "1352": "\u2581Fran",
    "1353": "\u2581number",
    "1354": "\u2581si",
    "1355": "imes",
    "1356": "tem",
    "1357": "my",
    "1358": "ler",
    "1359": "load",
    "1360": "==",
    "1361": "\u2581hand",
    "1362": "za",
    "1363": "\u2581because",
    "1364": "\u2581sch",
    "1365": "vo",
    "1366": "this",
    "1367": "ID",
    "1368": "\u00e3o",
    "1369": "\u2581start",
    "1370": "\u2581war",
    "1371": "\u2581help",
    "1372": "ts",
    "1373": "\u2581char",
    "1374": "\u2581ph",
    "1375": "\u2581min",
    "1376": "til",
    "1377": "rite",
    "1378": "--------",
    "1379": "els",
    "1380": "\u2581mit",
    "1381": "edia",
    "1382": "\u043a\u0443",
    "1383": "\u2581Sh",
    "1384": "any",
    "1385": "];",
    "1386": "\u2581\u0411",
    "1387": "ique",
    "1388": "da",
    "1389": "ef",
    "1390": "dex",
    "1391": "\u2581produ",
    "1392": "\u2581\u041d",
    "1393": "gram",
    "1394": "\u2581Or",
    "1395": "\u2581gre",
    "1396": "quote",
    "1397": "leg",
    "1398": "orn",
    "1399": "\u2581ind",
    "1400": "\u2581post",
    "1401": "\u2581dep",
    "1402": "],",
    "1403": "vi",
    "1404": "\u2581user",
    "1405": "\u2581>",
    "1406": "lick",
    "1407": "\u2581very",
    "1408": "ething",
    "1409": "\u2581array",
    "1410": "\u2581gu",
    "1411": "\u2581dur",
    "1412": "`.",
    "1413": "\u0442\u044c",
    "1414": "lication",
    "1415": "\u0441\u0442\u0438",
    "1416": "ek",
    "1417": "ico",
    "1418": "\u2581dat",
    "1419": "\u043e\u0440",
    "1420": "html",
    "1421": "ione",
    "1422": "\u2581different",
    "1423": "\u2581check",
    "1424": "\u2581fr",
    "1425": "\u2581Er",
    "1426": "\u2581text",
    "1427": "\u043d\u0456",
    "1428": "icht",
    "1429": "stack",
    "1430": "EN",
    "1431": "rag",
    "1432": "\u2581every",
    "1433": "Ar",
    "1434": "\u2581before",
    "1435": "alse",
    "1436": "\u2581fin",
    "1437": "\u2581d\u00e9",
    "1438": "\u2581these",
    "1439": "\u2581det",
    "1440": "Val",
    "1441": "ception",
    "1442": "\u2581android",
    "1443": "blockquote",
    "1444": "\u2581je",
    "1445": "file",
    "1446": "ats",
    "1447": "\u2581\u0434\u043e",
    "1448": "essage",
    "1449": "\u2581again",
    "1450": "aw",
    "1451": "Ch",
    "1452": "ween",
    "1453": "\u2581\u0414",
    "1454": "for",
    "1455": "cial",
    "1456": "play",
    "1457": "pre",
    "1458": "ida",
    "1459": "\u2581Par",
    "1460": "ny",
    "1461": "ract",
    "1462": "\u2581supp",
    "1463": "ased",
    "1464": "lection",
    "1465": "\u2581dans",
    "1466": "air",
    "1467": "rol",
    "1468": "\u2581thr",
    "1469": "Data",
    "1470": "lich",
    "1471": "\u2581\u043f\u0440\u043e",
    "1472": "\u2581long",
    "1473": "\u2581second",
    "1474": "ually",
    "1475": "ines",
    "1476": "\u2581found",
    "1477": "ength",
    "1478": "yp",
    "1479": "ead",
    "1480": "\u2581log",
    "1481": "ui",
    "1482": "new",
    "1483": "\u2581\u0420",
    "1484": "go",
    "1485": "aus",
    "1486": "ody",
    "1487": "\u2581son",
    "1488": "\u043c\u0435",
    "1489": "ero",
    "1490": "ved",
    "1491": "sub",
    "1492": "\u2581right",
    "1493": "view",
    "1494": "\u2581following",
    "1495": "')",
    "1496": "\");",
    "1497": "\u2581said",
    "1498": "\u0436\u0435",
    "1499": "\u0447\u0438",
    "1500": "\u0442\u0443",
    "1501": "ott",
    "1502": "\u0441\u0435",
    "1503": "ars",
    "1504": "$.",
    "1505": "gg",
    "1506": "\u2581br",
    "1507": "ool",
    "1508": "yle",
    "1509": "use",
    "1510": "\u2581show",
    "1511": "lease",
    "1512": "cia",
    "1513": "\u2581direct",
    "1514": "doc",
    "1515": "\u0430\u0440",
    "1516": "ms",
    "1517": "\u2581giv",
    "1518": "\u2581exp",
    "1519": "ql",
    "1520": "\u0434\u0443",
    "1521": "\u0432\u0435",
    "1522": "\u2581Be",
    "1523": "Com",
    "1524": "iter",
    "1525": "RE",
    "1526": "mp",
    "1527": "men",
    "1528": "\u2581Ro",
    "1529": "MA",
    "1530": "\u2581Col",
    "1531": "ister",
    "1532": "\u2581well",
    "1533": "\u2581</",
    "1534": "ayout",
    "1535": "ature",
    "1536": "ivers",
    "1537": "zy",
    "1538": "\u2581\u043d\u0435",
    "1539": "\u2581met",
    "1540": "une",
    "1541": "yth",
    "1542": "Type",
    "1543": "\u2581element",
    "1544": "\u2581link",
    "1545": "mod",
    "1546": "\u2581between",
    "1547": "cept",
    "1548": "quire",
    "1549": "\u2581through",
    "1550": "\u2581while",
    "1551": "\u2581On",
    "1552": "the",
    "1553": "\u00eda",
    "1554": "\u2581something",
    "1555": "vol",
    "1556": "\u2581most",
    "1557": "sc",
    "1558": "uss",
    "1559": "\u2581car",
    "1560": "\u2581sm",
    "1561": "\u2581\u0440\u043e",
    "1562": "ano",
    "1563": "left",
    "1564": "va",
    "1565": "\u2581true",
    "1566": "($",
    "1567": "ems",
    "1568": "\u2581much",
    "1569": "\u00e1s",
    "1570": "\u2581New",
    "1571": "\u2581proper",
    "1572": "era",
    "1573": "ited",
    "1574": "\u2581doc",
    "1575": "ices",
    "1576": "The",
    "1577": "\u2581?",
    "1578": "\u0441\u0442\u043e",
    "1579": "fl",
    "1580": "\u2581spec",
    "1581": "ender",
    "1582": "way",
    "1583": "\u2581self",
    "1584": "\u2581even",
    "1585": "\u0456\u0432",
    "1586": "\u2581\u0441\u0435",
    "1587": "\u043d\u0438\u044f",
    "1588": "\u2581Pr",
    "1589": "\u2581ke",
    "1590": "emb",
    "1591": "\u2581table",
    "1592": "\u2581equ",
    "1593": "lient",
    "1594": "td",
    "1595": "part",
    "1596": "\u2581print",
    "1597": "\u2581une",
    "1598": "ify",
    "1599": "\u2581->",
    "1600": "ene",
    "1601": "\u2581mon",
    "1602": "\u2581dec",
    "1603": "\u2581still",
    "1604": "\u2581\u043e\u0431",
    "1605": "\u2581Tr",
    "1606": "\u2581\u0444",
    "1607": "ife",
    "1608": "ism",
    "1609": "by",
    "1610": "raw",
    "1611": "ior",
    "1612": "\u2581med",
    "1613": "orld",
    "1614": "\u2581comple",
    "1615": "ww",
    "1616": "\u2581art",
    "1617": "ron",
    "1618": "\u2581\u0413",
    "1619": "\u2581My",
    "1620": "\u2581als",
    "1621": "rect",
    "1622": "\u2581auf",
    "1623": "\u2581down",
    "1624": "ather",
    "1625": "Col",
    "1626": "Text",
    "1627": "back",
    "1628": "$,",
    "1629": "\u2581year",
    "1630": "\u043c\u043e",
    "1631": "pi",
    "1632": "\u2581Gr",
    "1633": "ream",
    "1634": "\u2581rep",
    "1635": "bf",
    "1636": "www",
    "1637": "\u2581wur",
    "1638": "\u2581org",
    "1639": "inter",
    "1640": "\u2581Die",
    "1641": "\u2581being",
    "1642": "\".",
    "1643": "label",
    "1644": "\u2581cent",
    "1645": "java",
    "1646": "bar",
    "1647": "ante",
    "1648": "ana",
    "1649": "__",
    "1650": "\u2581solution",
    "1651": "\u2581\u041e",
    "1652": "\u2581fl",
    "1653": "\u2581create",
    "1654": "ici",
    "1655": "ste",
    "1656": "ython",
    "1657": "unt",
    "1658": "ason",
    "1659": "ference",
    "1660": "SE",
    "1661": "\u2581non",
    "1662": "ane",
    "1663": "\u2581ins",
    "1664": "ader",
    "1665": "_{\\",
    "1666": "Res",
    "1667": "\u2581main",
    "1668": "\u043f\u0438",
    "1669": "\u2581\u2581\u2581\u2581\u2581\u2581\u2581\u2581\u2581\u2581\u2581\u2581\u2581\u2581",
    "1670": "\u2581There",
    "1671": "\u2581pour",
    "1672": "RO",
    "1673": "`,",
    "1674": "lish",
    "1675": "bject",
    "1676": "ccess",
    "1677": "\u2581orig",
    "1678": "\u2581\u2581\u2581",
    "1679": "ischen",
    "1680": "ower",
    "1681": "\u2581het",
    "1682": "uc",
    "1683": "\u2581else",
    "1684": "\u00bb.",
    "1685": "\u2581\u043e\u0442",
    "1686": "equ",
    "1687": "sible",
    "1688": "test",
    "1689": "stand",
    "1690": "\u00e9n",
    "1691": "ets",
    "1692": "GE",
    "1693": "ident",
    "1694": "\u2581\u0435",
    "1695": "\u2581\u043f\u0440\u0438",
    "1696": ".,",
    "1697": "\u2581das",
    "1698": "ock",
    "1699": ",\"",
    "1700": "\u2581vol",
    "1701": "\u2581fo",
    "1702": "\u2581para",
    "1703": "\u2581\u0422",
    "1704": "\u2581Car",
    "1705": "ral",
    "1706": "\u2581Sp",
    "1707": "var",
    "1708": "\u2581play",
    "1709": "ouse",
    "1710": "\u2581\u0442\u0430",
    "1711": "ically",
    "1712": "\u2581contain",
    "1713": "ponse",
    "1714": "\u2581String",
    "1715": "\u00e1n",
    "1716": "\u2581both",
    "1717": "ken",
    "1718": "AR",
    "1719": "\u0435\u0440\u0435",
    "1720": "\u2581Il",
    "1721": "\u2581iss",
    "1722": "\u2581open",
    "1723": "\u2581)",
    "1724": "\u2581What",
    "1725": "fe",
    "1726": "rivate",
    "1727": "reg",
    "1728": "\u2581without",
    "1729": "\u2581zu",
    "1730": "vis",
    "1731": "flow",
    "1732": "\u2581http",
    "1733": "abase",
    "1734": "\u2581word",
    "1735": "\u2581change",
    "1736": "\u2581works",
    "1737": "\u2581ge",
    "1738": "\u2581!",
    "1739": "\u2581een",
    "1740": "itle",
    "1741": "\u2581event",
    "1742": "word",
    "1743": "ando",
    "1744": "SB",
    "1745": "rem",
    "1746": "\u2581field",
    "1747": "ving",
    "1748": "Ser",
    "1749": "\u2581our",
    "1750": "\u2581qui",
    "1751": "\u2581oper",
    "1752": "\u2581ist",
    "1753": "def",
    "1754": "\u2581made",
    "1755": "\u043d\u0438\u0435",
    "1756": "px",
    "1757": "\u2581men",
    "1758": "rm",
    "1759": "ais",
    "1760": "cent",
    "1761": "list",
    "1762": "To",
    "1763": "\u2581To",
    "1764": "ja",
    "1765": "vert",
    "1766": "\u2581mar",
    "1767": "value",
    "1768": "\u2581\u201e",
    "1769": "\";",
    "1770": "\u2581aus",
    "1771": "\u2581Br",
    "1772": "ole",
    "1773": "\u2581mult",
    "1774": "ought",
    "1775": "\u2581mat",
    "1776": "\u2581view",
    "1777": "fil",
    "1778": "\u2581\u0441\u043e",
    "1779": "\u0433\u0430",
    "1780": "\u2581void",
    "1781": "\u2581good",
    "1782": "\u0431\u043e",
    "1783": "CT",
    "1784": "\u2581many",
    "1785": "ben",
    "1786": "\u2581\u0432\u043e",
    "1787": "\u2581\u043a\u0430",
    "1788": "\u2581system",
    "1789": "ino",
    "1790": "\u2581another",
    "1791": "\u2581rest",
    "1792": "user",
    "1793": "ility",
    "1794": "ai",
    "1795": "\u2581might",
    "1796": "ustom",
    "1797": "\u2581order",
    "1798": "\u2581Ver",
    "1799": "SS",
    "1800": "})",
    "1801": "\u2581eff",
    "1802": "\u0434\u043e",
    "1803": "ett",
    "1804": "\u2581sign",
    "1805": "\u043c\u0443",
    "1806": "IT",
    "1807": "string",
    "1808": "elle",
    "1809": "\u2581sing",
    "1810": "cul",
    "1811": "\u2581trying",
    "1812": "\u2581beg",
    "1813": "\u2581page",
    "1814": "\u0445\u043e",
    "1815": "\u2581Can",
    "1816": "\u2581Ser",
    "1817": "++",
    "1818": "\u2581must",
    "1819": "\u2581values",
    "1820": "\u2581key",
    "1821": "ible",
    "1822": "].",
    "1823": "ird",
    "1824": "\u2581program",
    "1825": "roller",
    "1826": "\u2581conne",
    "1827": "\u2581say",
    "1828": "\u2581param",
    "1829": "ache",
    "1830": "velop",
    "1831": "\u2581select",
    "1832": "\u2581famil",
    "1833": "\u2581last",
    "1834": "\u2581Thanks",
    "1835": "\u2581pop",
    "1836": "}.",
    "1837": "eq",
    "1838": "\u2581doesn",
    "1839": "['",
    "1840": "\u2581term",
    "1841": "\u2581r\u00e9",
    "1842": "\u2581document",
    "1843": "\u043f\u0430",
    "1844": "\u043b\u0443",
    "1845": "ateg",
    "1846": ".)",
    "1847": "ling",
    "1848": "ional",
    "1849": "ables",
    "1850": "\u2581tak",
    "1851": "utton",
    "1852": "\u2581arg",
    "1853": "type",
    "1854": "\u2581sure",
    "1855": "\u2581real",
    "1856": "\u2581web",
    "1857": "\u2581current",
    "1858": "\u2581Pl",
    "1859": "cho",
    "1860": "ments",
    "1861": "\u2581Joh",
    "1862": "ots",
    "1863": "\u2581exist",
    "1864": "\u043d\u0443",
    "1865": "\u2581f\u00fcr",
    "1866": "\u2581\u0438\u0437",
    "1867": "do",
    "1868": "\u043d\u043e\u0433\u043e",
    "1869": "\u2581las",
    "1870": "\u2581null",
    "1871": "\u2581inform",
    "1872": "\u2581\u041b",
    "1873": "\u2581version",
    "1874": "\u2581chang",
    "1875": "ager",
    "1876": "\u2581Comm",
    "1877": "\u043b\u0456",
    "1878": "ush",
    "1879": "\u2581Ge",
    "1880": "\u2581high",
    "1881": "\u2581input",
    "1882": "ogle",
    "1883": "ros",
    "1884": "box",
    "1885": "gen",
    "1886": "\u2581ste",
    "1887": "\u2581local",
    "1888": "Im",
    "1889": "\u2581process",
    "1890": "ternal",
    "1891": "ized",
    "1892": "\u0433\u0438",
    "1893": "\u00e9t",
    "1894": "\u2581Ind",
    "1895": "\u2581och",
    "1896": "lt",
    "1897": "\u2581column",
    "1898": "\u2581tried",
    "1899": "\u2581command",
    "1900": "\u2581best",
    "1901": "aster",
    "1902": "\u0437\u0430",
    "1903": "\u2581prim",
    "1904": "\u2581model",
    "1905": "\u2581\u0456",
    "1906": "\u2581those",
    "1907": "ities",
    "1908": "\u00e8re",
    "1909": "\u2581\u0440\u0435",
    "1910": "\u0458\u0435",
    "1911": "\u0448\u0438",
    "1912": "ques",
    "1913": "\u2581Am",
    "1914": "\u2581own",
    "1915": "lin",
    "1916": "\u0437\u0438",
    "1917": "Value",
    "1918": "thing",
    "1919": "\u2581,",
    "1920": "\u2581Te",
    "1921": "\u2581stud",
    "1922": "\u2581um",
    "1923": "\u2581server",
    "1924": "ille",
    "1925": "\u2581put",
    "1926": "ativ",
    "1927": "gy",
    "1928": "\u043e\u0432\u0438",
    "1929": "raf",
    "1930": "\u043e\u0432\u043e",
    "1931": "\u2581wurde",
    "1932": "\u2581When",
    "1933": "\u2581div",
    "1934": "ants",
    "1935": "\u2581ter",
    "1936": "\u2581partic",
    "1937": "\u2581\u0442",
    "1938": "\u2581Do",
    "1939": "\u2581No",
    "1940": "sert",
    "1941": "ido",
    "1942": "mathcal",
    "1943": "ade",
    "1944": "\u2581II",
    "1945": "lear",
    "1946": "ograph",
    "1947": "ense",
    "1948": "\u2581row",
    "1949": "num",
    "1950": "\u2581possible",
    "1951": "\u2581since",
    "1952": "\u2581Bo",
    "1953": "ctions",
    "1954": "\u2581Im",
    "1955": "OR",
    "1956": "\u0446\u0456",
    "1957": "\u2581ide",
    "1958": "map",
    "1959": "\u2581correct",
    "1960": "ves",
    "1961": "php",
    "1962": "\u2581output",
    "1963": "\u2581Ph",
    "1964": "AL",
    "1965": "ared",
    "1966": "\\\\",
    "1967": "\u2581image",
    "1968": "esch",
    "1969": "\u0436\u0438",
    "1970": "\u2581conf",
    "1971": "por",
    "1972": "query",
    "1973": "ures",
    "1974": "ium",
    "1975": "ends",
    "1976": "\u2581Ab",
    "1977": "SBN",
    "1978": "\u0456\u0434",
    "1979": "ether",
    "1980": "ptions",
    "1981": "itu",
    "1982": "lib",
    "1983": "ns",
    "1984": "ki",
    "1985": "\u2581working",
    "1986": "\u2581como",
    "1987": "\u2581Then",
    "1988": "ML",
    "1989": "key",
    "1990": "class",
    "1991": "ople",
    "1992": "ittle",
    "1993": "\u2581match",
    "1994": "ways",
    "1995": "mathbb",
    "1996": "\u2581require",
    "1997": "alt",
    "1998": "\u2581vis",
    "1999": "\u2581bl",
    "2000": "\u2581called",
    "2001": "Item",
    "2002": "ura",
    "2003": "vec",
    "2004": "eme",
    "2005": "\u2581della",
    "2006": "embre",
    "2007": "urg",
    "2008": "Se",
    "2009": "\u2581request",
    "2010": "ische",
    "2011": "\u2581port",
    "2012": "\u2581instead",
    "2013": "=\\",
    "2014": "\u2581\u0423",
    "2015": "hor",
    "2016": "ente",
    "2017": "ume",
    "2018": "erd",
    "2019": "\u0441\u0430",
    "2020": "\u2581why",
    "2021": "rist",
    "2022": "\u2581person",
    "2023": "\u2581...",
    "2024": "\u2581private",
    "2025": "\u2581tot",
    "2026": "pha",
    "2027": "ift",
    "2028": "ita",
    "2029": "loc",
    "2030": "\u2581old",
    "2031": "\u043e\u043d",
    "2032": "\u2581nel",
    "2033": "']",
    "2034": "ti",
    "2035": "iet",
    "2036": "cite",
    "2037": "plement",
    "2038": "\u2581above",
    "2039": "ks",
    "2040": "ready",
    "2041": "\u2581come",
    "2042": "section",
    "2043": "\u2581Pol",
    "2044": "\u2581writ",
    "2045": "\u2581https",
    "2046": "\u2581$$",
    "2047": "\u2581\u00bb",
    "2048": "\u2581build",
    "2049": "ito",
    "2050": "\u2581consider",
    "2051": "aft",
    "2052": "App",
    "2053": ",\\",
    "2054": "indows",
    "2055": "comm",
    "2056": "\u2581;",
    "2057": "ground",
    "2058": "\u2581place",
    "2059": "By",
    "2060": "\u2581project",
    "2061": "Object",
    "2062": "\u2581repr",
    "2063": "ences",
    "2064": "indow",
    "2065": "zt",
    "2066": "\u2581files",
    "2067": "cz",
    "2068": "ivity",
    "2069": "\u2581init",
    "2070": "\u2581prob",
    "2071": "\u2581sk",
    "2072": "orth",
    "2073": "iment",
    "2074": "ouble",
    "2075": "atal",
    "2076": "irc",
    "2077": "\u2581\u00e8",
    "2078": "\u2581bre",
    "2079": "ista",
    "2080": "input",
    "2081": "\u2581\u0418",
    "2082": "\u043d\u043e\u0439",
    "2083": "sum",
    "2084": "path",
    "2085": "\u2581cour",
    "2086": "\u2581too",
    "2087": "\u2581Ad",
    "2088": "\u2581Gu",
    "2089": "\u2581false",
    "2090": "\u2581fun",
    "2091": "\u2581\u0441\u0442",
    "2092": "ood",
    "2093": "\u00e8s",
    "2094": "\u2581enc",
    "2095": "bol",
    "2096": "rl",
    "2097": "arget",
    "2098": "order",
    "2099": "\u2581mean",
    "2100": "\u043f\u0435",
    "2101": "igen",
    "2102": "\u2581\u043f\u0440\u0435",
    "2103": "width",
    "2104": ";\r",
    "2105": "itor",
    "2106": "\u2581state",
    "2107": "\u2581great",
    "2108": "enn",
    "2109": "bin",
    "2110": "Er",
    "2111": "Mod",
    "2112": "oz",
    "2113": "\u2581won",
    "2114": "\u2581fact",
    "2115": "\u2581java",
    "2116": "\u2581Univers",
    "2117": "\u2581cap",
    "2118": "istor",
    "2119": "}(",
    "2120": "ku",
    "2121": "ither",
    "2122": "ales",
    "2123": "\u2581ou",
    "2124": "ross",
    "2125": "\u2581take",
    "2126": "rix",
    "2127": "lob",
    "2128": "\u2581eine",
    "2129": "ases",
    "2130": "\u2581access",
    "2131": "it\u00e9",
    "2132": "istr",
    "2133": "ization",
    "2134": "\u2581appro",
    "2135": "ball",
    "2136": "\u2581mak",
    "2137": "}^",
    "2138": "\u2581Cons",
    "2139": "press",
    "2140": "serv",
    "2141": "().",
    "2142": "af",
    "2143": "\u2581ref",
    "2144": ")\\",
    "2145": "\u2581contin",
    "2146": "su",
    "2147": "iver",
    "2148": "\u2581cond",
    "2149": "\u2581expect",
    "2150": "\u2581charact",
    "2151": "bert",
    "2152": "elt",
    "2153": "ters",
    "2154": "script",
    "2155": "\u2581Ed",
    "2156": "apt",
    "2157": "');",
    "2158": "print",
    "2159": "\u2581size",
    "2160": "\u2581sich",
    "2161": "face",
    "2162": "enden",
    "2163": "\u2581Amer",
    "2164": "ified",
    "2165": "\u00f3w",
    "2166": "\u2581Su",
    "2167": "tes",
    "2168": "med",
    "2169": "\u2581Reg",
    "2170": "sole",
    "2171": "\u2581includ",
    "2172": "ini",
    "2173": "inci",
    "2174": "\u2581pla",
    "2175": "\u2581left",
    "2176": "df",
    "2177": "Par",
    "2178": "\u2581All",
    "2179": "\u2581occ",
    "2180": "\u2581At",
    "2181": "\u2581cr",
    "2182": "Qu",
    "2183": "\u2581given",
    "2184": "\u2581System",
    "2185": "ican",
    "2186": "\u2581final",
    "2187": "itions",
    "2188": "\u2581\u0431\u044b",
    "2189": "\u2581perform",
    "2190": "AN",
    "2191": "\u2581Me",
    "2192": "uro",
    "2193": "\u2581That",
    "2194": "\u0433\u0440\u0430",
    "2195": "\u2581\u041f\u043e",
    "2196": "\u2581\u0432\u0438",
    "2197": "ably",
    "2198": "\u2581present",
    "2199": "duct",
    "2200": "ric",
    "2201": "\u2581Eng",
    "2202": "try",
    "2203": "\u2581lar",
    "2204": "bl",
    "2205": "idd",
    "2206": "\u2581\u00e4r",
    "2207": "ora",
    "2208": "LL",
    "2209": "oss",
    "2210": "\u2581ISBN",
    "2211": "\u2581three",
    "2212": "jo",
    "2213": "n\u00ed",
    "2214": "rc",
    "2215": "\u2581far",
    "2216": "\u2581Not",
    "2217": "\u2581little",
    "2218": "dis",
    "2219": "ati",
    "2220": "function",
    "2221": "\u2581able",
    "2222": "less",
    "2223": "\u0441\u043e",
    "2224": "\u2581path",
    "2225": "\u2581pres",
    "2226": "lose",
    "2227": "PI",
    "2228": "\u2581issue",
    "2229": "ackage",
    "2230": "time",
    "2231": "ige",
    "2232": "ams",
    "2233": "\u2581Cl",
    "2234": "ails",
    "2235": "alk",
    "2236": "ii",
    "2237": "\u0448\u0435",
    "2238": "pen",
    "2239": "QL",
    "2240": "\u2581eas",
    "2241": "RL",
    "2242": "cel",
    "2243": "\u2581sl",
    "2244": "\u2581ask",
    "2245": "\u2581nom",
    "2246": "\u2581top",
    "2247": "ides",
    "2248": "index",
    "2249": "\u00e9m",
    "2250": "\u2581happ",
    "2251": "ox",
    "2252": "cd",
    "2253": "\u2581better",
    "2254": "\u2581load",
    "2255": "ados",
    "2256": "zen",
    "2257": "\u2581ce",
    "2258": "\u2581fa",
    "2259": "\u2581John",
    "2260": "IMA",
    "2261": "\u2581Bar",
    "2262": "overflow",
    "2263": "\u2581\u0434\u0435",
    "2264": "ness",
    "2265": "cer",
    "2266": "\u2581Here",
    "2267": "ret",
    "2268": "\u2581sz",
    "2269": "ambda",
    "2270": "opy",
    "2271": "url",
    "2272": "py",
    "2273": "rt",
    "2274": "\u2581understand",
    "2275": "a\u0142",
    "2276": "her",
    "2277": "##",
    "2278": "\u2581child",
    "2279": "\u2581exec",
    "2280": "\u2581application",
    "2281": "\u2581struct",
    "2282": "\u2581\u044f",
    "2283": "File",
    "2284": "\u2581cert",
    "2285": "ison",
    "2286": "\u2581variable",
    "2287": "DE",
    "2288": "rs",
    "2289": "\u2581really",
    "2290": "Port",
    "2291": "ba",
    "2292": "\u2581Ber",
    "2293": "\u2581inte",
    "2294": "\u2581static",
    "2295": "\u2581config",
    "2296": "\u2581She",
    "2297": "estions",
    "2298": "\u2581plus",
    "2299": "\u2581hab",
    "2300": "ope",
    "2301": "\u2581mus",
    "2302": "\u2581count",
    "2303": "ME",
    "2304": "\u2581support",
    "2305": "\u2581people",
    "2306": "\u2581beh",
    "2307": "\u2581already",
    "2308": "Tr",
    "2309": "\u2581done",
    "2310": "dem",
    "2311": "size",
    "2312": "alpha",
    "2313": "\u2581disc",
    "2314": "])",
    "2315": "\u2581Man",
    "2316": "\u2581mil",
    "2317": "\u2581stand",
    "2318": "\u2581group",
    "2319": "\u2581small",
    "2320": "\u2581mag",
    "2321": "\u0441\u0442\u044c",
    "2322": "\u2581default",
    "2323": "\u2581single",
    "2324": "link",
    "2325": "clude",
    "2326": "\u2581ear",
    "2327": "ilar",
    "2328": "****",
    "2329": "\u2581fix",
    "2330": "ley",
    "2331": "\u2581pas",
    "2332": "\u043d\u0438\u0439",
    "2333": "ission",
    "2334": "\u2581implement",
    "2335": "itch",
    "2336": "\u2581\u0433\u043e\u0434\u0430",
    "2337": "\u2581always",
    "2338": "\u2581Jah",
    "2339": "pring",
    "2340": "\u00e7\u00e3o",
    "2341": "plate",
    "2342": "\u2581descri",
    "2343": "\u2581head",
    "2344": "init",
    "2345": "ograf",
    "2346": "\u2581query",
    "2347": "ived",
    "2348": "\u2581ing",
    "2349": "pty",
    "2350": "ha",
    "2351": "\u2581mov",
    "2352": "\u2581\u044d",
    "2353": "ette",
    "2354": "ily",
    "2355": "\u2581got",
    "2356": "iled",
    "2357": "icro",
    "2358": "\u2581wr",
    "2359": "\u0440\u044f",
    "2360": "\u2581never",
    "2361": "ores",
    "2362": "\u2581bas",
    "2363": "ios",
    "2364": "lack",
    "2365": "aint",
    "2366": "vious",
    "2367": "\u2581give",
    "2368": "idad",
    "2369": "En",
    "2370": "\u043d\u044b\u0439",
    "2371": "table",
    "2372": "\u2581\u041d\u0430",
    "2373": "\u2581pat",
    "2374": "\u0442\u043e\u0440",
    "2375": "angu",
    "2376": "loy",
    "2377": "\u2581seg",
    "2378": "array",
    "2379": "\u2581Fl",
    "2380": "\u2581index",
    "2381": "\u2581sw",
    "2382": "IMAGE",
    "2383": "\u2581km",
    "2384": "\u0431\u0438",
    "2385": "Class",
    "2386": "ena",
    "2387": "\u043c\u0435\u043d",
    "2388": "comp",
    "2389": "atus",
    "2390": "rap",
    "2391": "\u2581List",
    "2392": "Error",
    "2393": "\u2581typ",
    "2394": "\u2581\u043c\u0430",
    "2395": "cs",
    "2396": "':",
    "2397": "ji",
    "2398": "\u2581However",
    "2399": "\u2581\u0442\u0435",
    "2400": "\u2581below",
    "2401": "\u2581App",
    "2402": "\u0449\u0435",
    "2403": "}_",
    "2404": "bum",
    "2405": "vir",
    "2406": "\u00e9es",
    "2407": "\u2581record",
    "2408": "tain",
    "2409": "lem",
    "2410": "ital",
    "2411": "\u2581imp",
    "2412": "ego",
    "2413": "\u2581od",
    "2414": "\u2581rece",
    "2415": "mit",
    "2416": "ffic",
    "2417": "stackoverflow",
    "2418": "ieve",
    "2419": "\u2581\u0417",
    "2420": "\u2581nov",
    "2421": "\u0446\u0435",
    "2422": "\u2581Intern",
    "2423": "bu",
    "2424": "\u2581sugg",
    "2425": "\u2581loop",
    "2426": "ride",
    "2427": "\u2581$(",
    "2428": "\u2581super",
    "2429": "rid",
    "2430": "\u043d\u044b\u0445",
    "2431": "\u2581Per",
    "2432": "\u2581dom",
    "2433": "='",
    "2434": "utsch",
    "2435": "len",
    "2436": "\u2581write",
    "2437": "\u2581inv",
    "2438": "outh",
    "2439": "\u2581Her",
    "2440": "\u2581years",
    "2441": "\u2581original",
    "2442": "ega",
    "2443": "\u2581Ste",
    "2444": "\u2581seems",
    "2445": "\u00e9g",
    "2446": "\u2581next",
    "2447": "eder",
    "2448": "\u2581Ne",
    "2449": "avas",
    "2450": "ification",
    "2451": "Exception",
    "2452": "\u2581Der",
    "2453": "\u2581ve",
    "2454": "atic",
    "2455": "hat",
    "2456": "brary",
    "2457": "return",
    "2458": "urch",
    "2459": "ision",
    "2460": "mi",
    "2461": "oint",
    "2462": "\u2581day",
    "2463": "iction",
    "2464": "\u00e1l",
    "2465": "\u2581\u00e9s",
    "2466": "\u2581though",
    "2467": "action",
    "2468": "\u00edt",
    "2469": "ungen",
    "2470": "ours",
    "2471": "\u2581script",
    "2472": "\u2581information",
    "2473": "\u2581multi",
    "2474": "\u2581\\\\",
    "2475": "ster",
    "2476": "\u043a\u0435",
    "2477": "AC",
    "2478": "cies",
    "2479": "\u2581display",
    "2480": "oman",
    "2481": "Time",
    "2482": "ius",
    "2483": "));",
    "2484": "tre",
    "2485": "\u2581lim",
    "2486": "ately",
    "2487": "\u00e9d",
    "2488": "iste",
    "2489": "\u2581\u0441\u0430",
    "2490": "post",
    "2491": "uel",
    "2492": "img",
    "2493": "\u2581\u0447",
    "2494": "\u0441\u043a\u0430",
    "2495": "eld",
    "2496": "pper",
    "2497": "ula",
    "2498": "\u2581general",
    "2499": "Al",
    "2500": "Form",
    "2501": "\u2581upon",
    "2502": "zo",
    "2503": "amente",
    "2504": "\u2581prom",
    "2505": "\u2581\u00fc",
    "2506": "lex",
    "2507": "\u2581turn",
    "2508": "\u2581\u043c\u0435",
    "2509": "ention",
    "2510": "\u043b\u0435\u043d",
    "2511": "\u2581af",
    "2512": "icle",
    "2513": "\u0441\u0442\u0432",
    "2514": "\u2581Fil",
    "2515": "\u2581\u0424",
    "2516": "avascript",
    "2517": "Man",
    "2518": "ara",
    "2519": "ware",
    "2520": "align",
    "2521": "angle",
    "2522": "\u2581Sc",
    "2523": "unic",
    "2524": "\u2581fran",
    "2525": "Un",
    "2526": "zi",
    "2527": "met",
    "2528": "Add",
    "2529": "\u2581pub",
    "2530": "\u043a\u043e\u0432",
    "2531": "\u2581gen",
    "2532": "\u2581pod",
    "2533": "\u2581sum",
    "2534": "\u2581having",
    "2535": "\u2581avec",
    "2536": "sl",
    "2537": "\u2581fig",
    "2538": "\u2581Res",
    "2539": "Date",
    "2540": "ules",
    "2541": "with",
    "2542": "\u0441\u043a\u0438\u0439",
    "2543": "gu",
    "2544": "ET",
    "2545": "\u2581bro",
    "2546": "rie",
    "2547": "aps",
    "2548": "ending",
    "2549": "mail",
    "2550": "ook",
    "2551": "\u2581success",
    "2552": "berg",
    "2553": "\u2581deb",
    "2554": "elta",
    "2555": "()`",
    "2556": "ential",
    "2557": "frame",
    "2558": "Key",
    "2559": "inn",
    "2560": "\u2581simple",
    "2561": "ival",
    "2562": "\u2581care",
    "2563": "\u2581Web",
    "2564": "\").",
    "2565": "></",
    "2566": "\u2581database",
    "2567": "\u2581Now",
    "2568": "Ind",
    "2569": "\u2581\u043c\u043e",
    "2570": "cht",
    "2571": "ban",
    "2572": "ram",
    "2573": "equation",
    "2574": "ski",
    "2575": "ief",
    "2576": "lim",
    "2577": "Get",
    "2578": "\u2581tre",
    "2579": "aten",
    "2580": "bed",
    "2581": "\u2581Je",
    "2582": "\u2581results",
    "2583": "\u043b\u044e",
    "2584": "\u0442\u0435\u043b\u044c",
    "2585": "db",
    "2586": "\u2581bit",
    "2587": "body",
    "2588": "Array",
    "2589": "mu",
    "2590": "pression",
    "2591": "\u2581\u0441\u0442\u0430",
    "2592": "ony",
    "2593": "iff",
    "2594": "\u2581bar",
    "2595": "\u2581Arch",
    "2596": "bers",
    "2597": "){",
    "2598": "\u2581Mon",
    "2599": "\u2581doing",
    "2600": "\u2581prof",
    "2601": "\u2581install",
    "2602": "\u2581position",
    "2603": "ema",
    "2604": "\u2581});",
    "2605": "Path",
    "2606": "ali",
    "2607": "\u2581&&",
    "2608": "lev",
    "2609": "\u2581cannot",
    "2610": "\u2581May",
    "2611": "inst",
    "2612": "-\\",
    "2613": "\u2581coun",
    "2614": "\u2581ang",
    "2615": "\u2581appear",
    "2616": "cor",
    "2617": "ci\u00f3",
    "2618": "ided",
    "2619": "questions",
    "2620": "atter",
    "2621": "\u2581Pa",
    "2622": "select",
    "2623": "\u2581princi",
    "2624": "Event",
    "2625": "\u2581side",
    "2626": "\u2581mem",
    "2627": "\u2581Jan",
    "2628": "ario",
    "2629": "\u2581within",
    "2630": "\u2581Val",
    "2631": "odes",
    "2632": "iddle",
    "2633": "uration",
    "2634": "bra",
    "2635": "\u2581date",
    "2636": "[]",
    "2637": "\u2581entre",
    "2638": "ili",
    "2639": "Portail",
    "2640": "docs",
    "2641": "\u0441\u043a\u043e\u0439",
    "2642": "Element",
    "2643": "\u2581message",
    "2644": "\u2581nach",
    "2645": "\u2581during",
    "2646": "\u2581gra",
    "2647": "etwork",
    "2648": "\u2581By",
    "2649": "\u2581tell",
    "2650": "ete",
    "2651": "~\\",
    "2652": "\u2581bis",
    "2653": "\u2581pu",
    "2654": "\u2581red",
    "2655": "\u2581thing",
    "2656": "\u2581sort",
    "2657": "xim",
    "2658": "ires",
    "2659": "User",
    "2660": "iod",
    "2661": "\u2581Est",
    "2662": "osed",
    "2663": "oute",
    "2664": "\u2581Les",
    "2665": "\u2581sent",
    "2666": "ribute",
    "2667": "utes",
    "2668": "istory",
    "2669": "\u2581service",
    "2670": "';",
    "2671": "field",
    "2672": "\u2581IN",
    "2673": "ension",
    "2674": "rel",
    "2675": "\u2581going",
    "2676": "web",
    "2677": "Context",
    "2678": "\u2581later",
    "2679": "uk",
    "2680": "layout",
    "2681": "ona",
    "2682": "\u00e1t",
    "2683": "----------------",
    "2684": "\u2581exact",
    "2685": "andom",
    "2686": "\u2581sie",
    "2687": "II",
    "2688": "\u2581They",
    "2689": "mente",
    "2690": "ibli",
    "2691": "\u2581fine",
    "2692": "UT",
    "2693": "\u2581develop",
    "2694": "\u2581Ein",
    "2695": "soft",
    "2696": "off",
    "2697": "Set",
    "2698": "\u2581az",
    "2699": "eters",
    "2700": "ilder",
    "2701": "ples",
    "2702": "\u2581specific",
    "2703": "\u2581om",
    "2704": "error",
    "2705": "ently",
    "2706": "\u2581film",
    "2707": "uck",
    "2708": "ains",
    "2709": "aci\u00f3n",
    "2710": "ges",
    "2711": "\u0436\u0430",
    "2712": "\u2581things",
    "2713": "Sh",
    "2714": "\u2581thought",
    "2715": "\u2581added",
    "2716": "dep",
    "2717": "\u0441\u043a\u043e\u0433\u043e",
    "2718": "\u2581Li",
    "2719": "ils",
    "2720": "ync",
    "2721": "\u2581\u0442\u043e",
    "2722": "ries",
    "2723": "\u2581cu",
    "2724": "chen",
    "2725": "ION",
    "2726": "\u2581Des",
    "2727": "ultado",
    "2728": "irt",
    "2729": "\u2581based",
    "2730": "\u2581mo",
    "2731": "\u2581dest",
    "2732": "png",
    "2733": "reen",
    "2734": "\u2581running",
    "2735": "amma",
    "2736": "oud",
    "2737": "\u2581refer",
    "2738": "ious",
    "2739": "\u2581Jul",
    "2740": "\u2581search",
    "2741": "ald",
    "2742": "ede",
    "2743": "\u2581wrong",
    "2744": "An",
    "2745": "\u2581until",
    "2746": "site",
    "2747": "ayer",
    "2748": "\u2581once",
    "2749": "arr",
    "2750": "\u2581against",
    "2751": "====",
    "2752": "\u2581source",
    "2753": "arn",
    "2754": "api",
    "2755": "\u2581represent",
    "2756": "\u2581aff",
    "2757": "\u2581sein",
    "2758": "\u2581allow",
    "2759": "ormal",
    "2760": "ended",
    "2761": "\u2581control",
    "2762": "mathbf",
    "2763": "come",
    "2764": "cur",
    "2765": "endo",
    "2766": "wa",
    "2767": "\u2581update",
    "2768": "\u2581inside",
    "2769": "\u2581reason",
    "2770": "omen",
    "2771": "\u2581\u0432\u044b",
    "2772": "De",
    "2773": "\u2581\u0458\u0435",
    "2774": "sw",
    "2775": "\u2581sever",
    "2776": "Of",
    "2777": "\u2581instance",
    "2778": "\u2581mer",
    "2779": "\u2581effect",
    "2780": "color",
    "2781": "ugust",
    "2782": "ilt",
    "2783": "des",
    "2784": "itz",
    "2785": "ulation",
    "2786": "nie",
    "2787": "\u2581World",
    "2788": "\u2581similar",
    "2789": "ymbol",
    "2790": "hing",
    "2791": "\u2581mark",
    "2792": "State",
    "2793": "\u2581content",
    "2794": "\u2581means",
    "2795": "amed",
    "2796": "\u2581End",
    "2797": "ND",
    "2798": "count",
    "2799": "\u2581Inst",
    "2800": "perty",
    "2801": "ctor",
    "2802": "\u2581{\\",
    "2803": "\u2581Let",
    "2804": "\u2581!=",
    "2805": "\u2581getting",
    "2806": "uth",
    "2807": "umber",
    "2808": "\u2581Consultado",
    "2809": "schaft",
    "2810": "lete",
    "2811": "\u2581Will",
    "2812": "\u2581Em",
    "2813": "head",
    "2814": "\u2581leg",
    "2815": "\u043d\u043e\u043c",
    "2816": "Or",
    "2817": "arm",
    "2818": "pond",
    "2819": "\u2581Christ",
    "2820": "\u2581around",
    "2821": "\u2581clear",
    "2822": "\u2581href",
    "2823": "\u2581See",
    "2824": "').",
    "2825": "\u2581created",
    "2826": "\u2581button",
    "2827": "ining",
    "2828": "\u2581click",
    "2829": "iam",
    "2830": "plit",
    "2831": "For",
    "2832": "\u2581polit",
    "2833": "\u2581seem",
    "2834": "\u2581life",
    "2835": "\u043d\u043e\u0432",
    "2836": "\u2581intern",
    "2837": "\u0449\u0438",
    "2838": "sel",
    "2839": "soci",
    "2840": "\u2581stor",
    "2841": "cle",
    "2842": "earch",
    "2843": "android",
    "2844": "}^{",
    "2845": "\u2581either",
    "2846": "\u2581few",
    "2847": "\u2581initial",
    "2848": "length",
    "2849": "ria",
    "2850": "sql",
    "2851": "wik",
    "2852": "\u2581\u00e9t",
    "2853": "uer",
    "2854": "\u2581valid",
    "2855": "And",
    "2856": "include",
    "2857": "ury",
    "2858": "\u2581sus",
    "2859": "ired",
    "2860": "\u2581After",
    "2861": "\u2581due",
    "2862": "\u2581bei",
    "2863": "ources",
    "2864": "\u2581Nov",
    "2865": "Act",
    "2866": "\u2581Cont",
    "2867": "\u2581break",
    "2868": "ested",
    "2869": "\u2581actually",
    "2870": "else",
    "2871": "tml",
    "2872": "rer",
    "2873": "ones",
    "2874": "\u2581design",
    "2875": "\u2581property",
    "2876": "phi",
    "2877": "ality",
    "2878": "och",
    "2879": "ists",
    "2880": "\u2581\u00b7",
    "2881": "udio",
    "2882": "AB",
    "2883": "ala",
    "2884": "iones",
    "2885": "\u0444\u0438",
    "2886": "find",
    "2887": "As",
    "2888": "\u2581custom",
    "2889": "\u2581ann",
    "2890": "ES",
    "2891": "OT",
    "2892": "lambda",
    "2893": "\u2581ident",
    "2894": "\u2581organ",
    "2895": "\u2581Cent",
    "2896": "\u2581Char",
    "2897": "\u2581os",
    "2898": "\u2581hard",
    "2899": "\u0440\u043e\u0432",
    "2900": "\u2581/>",
    "2901": "ko",
    "2902": "\u2581exper",
    "2903": "\u2581separ",
    "2904": "yl",
    "2905": "ourn",
    "2906": "\u2581dev",
    "2907": "\u2581auch",
    "2908": "\u2581block",
    "2909": "book",
    "2910": "\u2581map",
    "2911": "illa",
    "2912": "\u2581comput",
    "2913": "\u2581space",
    "2914": "result",
    "2915": ")}",
    "2916": "\u2581echo",
    "2917": "config",
    "2918": "hi",
    "2919": "\u2581large",
    "2920": "\u2581width",
    "2921": "\u2581Go",
    "2922": "mat",
    "2923": "\u2581diff",
    "2924": "\u2581kind",
    "2925": "ances",
    "2926": "ynam",
    "2927": "\u2581color",
    "2928": "Int",
    "2929": "sol",
    "2930": "\u2581pi",
    "2931": "\u2581character",
    "2932": "oment",
    "2933": "\u2581response",
    "2934": "igma",
    "2935": "wards",
    "2936": "arrow",
    "2937": "\u0441\u0443",
    "2938": "ties",
    "2939": "\u2581\u00fcber",
    "2940": "Image",
    "2941": "yd",
    "2942": "\u2581\u043f\u0435\u0440\u0435",
    "2943": "\u2581node",
    "2944": "\u2581item",
    "2945": "achine",
    "2946": "ima",
    "2947": "\u2581va",
    "2948": "\u2581approach",
    "2949": "\u2581wer",
    "2950": "\u2581\u0447\u0435",
    "2951": "On",
    "2952": "ollow",
    "2953": "\u043e\u043d\u0430",
    "2954": "cted",
    "2955": "ured",
    "2956": "Controller",
    "2957": "lied",
    "2958": "\u2581jo",
    "2959": "\u2581dal",
    "2960": "unk",
    "2961": "\u2581\u00ee",
    "2962": "start",
    "2963": "ola",
    "2964": "\u2581compon",
    "2965": "IC",
    "2966": "bit",
    "2967": "\u2581base",
    "2968": "\u043f\u0443",
    "2969": "\u2581idea",
    "2970": "\u2581dire",
    "2971": "\u2581rad",
    "2972": "group",
    "2973": "\u2581With",
    "2974": "server",
    "2975": "side",
    "2976": "sing",
    "2977": "\u2581dies",
    "2978": "\u2581near",
    "2979": "\u2581voor",
    "2980": "\u2581argument",
    "2981": "\u2581},",
    "2982": "\u2581land",
    "2983": "\u2581names",
    "2984": "\u2581option",
    "2985": "ithub",
    "2986": "pped",
    "2987": "aug",
    "2988": "\u2581links",
    "2989": "\u2581full",
    "2990": "\u2581situ",
    "2991": "\u2581console",
    "2992": "\u2581etc",
    "2993": "aux",
    "2994": "\u2581Cor",
    "2995": "icrosoft",
    "2996": "\u2581came",
    "2997": "local",
    "2998": "\u2581known",
    "2999": "\u2581multiple",
    "3000": "anguage",
    "3001": "\u2581total",
    "3002": "ology",
    "3003": "\u00e4t",
    "3004": "\u2581\u0425",
    "3005": "\u2581fre",
    "3006": "\u2581ten",
    "3007": "ideo",
    "3008": "\u2581bes",
    "3009": "true",
    "3010": "Query",
    "3011": "omm",
    "3012": "\u2581Art",
    "3013": "\u2581keep",
    "3014": "\u2581University",
    "3015": "reate",
    "3016": "pport",
    "3017": "\u2581python",
    "3018": "tra",
    "3019": "ector",
    "3020": "\u0440\u0456",
    "3021": "oph",
    "3022": "\u2581conc",
    "3023": "\u2581four",
    "3024": "viron",
    "3025": "\u2581via",
    "3026": "?\"",
    "3027": "image",
    "3028": "oll",
    "3029": "\u043d\u044b\u0435",
    "3030": "\u2581context",
    "3031": "\u2581sem",
    "3032": "._",
    "3033": "\u2581eng",
    "3034": "mar",
    "3035": "AD",
    "3036": "\u2581mor",
    "3037": "\u2581Cal",
    "3038": "\u2581cell",
    "3039": "imal",
    "3040": "ATE",
    "3041": "\u2581inf",
    "3042": "\u00f6n",
    "3043": "uffer",
    "3044": "sq",
    "3045": "....",
    "3046": "\u2581zur",
    "3047": "With",
    "3048": "\u0440\u0430\u043d",
    "3049": "chn",
    "3050": "\u2581door",
    "3051": "content",
    "3052": "\u2581miss",
    "3053": "\u2581simp",
    "3054": "\u00e1r",
    "3055": "ira",
    "3056": "\u2581hat",
    "3057": "Test",
    "3058": "\u2581certain",
    "3059": "NS",
    "3060": "\u2581cho",
    "3061": "\u2581adv",
    "3062": "where",
    "3063": "\u2581looking",
    "3064": "\u2581times",
    "3065": "\u043d\u0438\u0445",
    "3066": "uto",
    "3067": "\u2581\u00c9",
    "3068": "can",
    "3069": "host",
    "3070": "\u2581(*",
    "3071": "loat",
    "3072": "\u2581nicht",
    "3073": "Field",
    "3074": "burg",
    "3075": "const",
    "3076": "ades",
    "3077": "\u2581Mus",
    "3078": "\u2581nothing",
    "3079": "\u2581incre",
    "3080": "\u2581Min",
    "3081": "\u2581power",
    "3082": "\u2581American",
    "3083": "ln",
    "3084": "valid",
    "3085": "ungs",
    "3086": "\u2581National",
    "3087": "\u2581San",
    "3088": "\u2581York",
    "3089": "Request",
    "3090": "char",
    "3091": "\u2581Ze",
    "3092": "button",
    "3093": "\u2581alg",
    "3094": "SON",
    "3095": "\u2581ap",
    "3096": "uff",
    "3097": "ability",
    "3098": "\u0435\u043c",
    "3099": "\u2581anything",
    "3100": "ela",
    "3101": "())",
    "3102": "\u0431\u0430",
    "3103": "ampion",
    "3104": "\u2581pot",
    "3105": "\u2581fut",
    "3106": "ailable",
    "3107": "\u2581prop",
    "3108": "\"]",
    "3109": "\u2581less",
    "3110": "lag",
    "3111": "\u2581August",
    "3112": "It",
    "3113": "\u2581please",
    "3114": "\u2581style",
    "3115": "\u2581Also",
    "3116": "bt",
    "3117": "\u2581probably",
    "3118": "\u2581One",
    "3119": "\u2581poss",
    "3120": "UI",
    "3121": "uit",
    "3122": "\u2581West",
    "3123": "hn",
    "3124": "+\\",
    "3125": "Button",
    "3126": "json",
    "3127": "err",
    "3128": "rame",
    "3129": "dom",
    "3130": "ilon",
    "3131": "alf",
    "3132": "\u2581client",
    "3133": "\u2581continu",
    "3134": "xml",
    "3135": "pec",
    "3136": "ador",
    "3137": "ls",
    "3138": "\u2581however",
    "3139": "\u2581Any",
    "3140": "\u00e4nd",
    "3141": "mathrm",
    "3142": "\u2581url",
    "3143": "\u2581book",
    "3144": "\u2581gl",
    "3145": "ives",
    "3146": "gi",
    "3147": "\u2581tro",
    "3148": "\u2581US",
    "3149": "point",
    "3150": "open",
    "3151": "\u2581cur",
    "3152": "\u2581era",
    "3153": "\u2581particular",
    "3154": "\u2581HT",
    "3155": "oot",
    "3156": "ello",
    "3157": "lobal",
    "3158": "\u2581action",
    "3159": "\u2581Int",
    "3160": "\u2581include",
    "3161": "\u2581elements",
    "3162": "\u043d\u0430\u044f",
    "3163": "ards",
    "3164": "\u2581Bl",
    "3165": "\u2581hum",
    "3166": "from",
    "3167": "change",
    "3168": "\u2581functions",
    "3169": "hen",
    "3170": "Service",
    "3171": "\u2581height",
    "3172": "\u2581Land",
    "3173": "ias",
    "3174": "gs",
    "3175": "i\u00f3n",
    "3176": "\u043b\u043e\u0432",
    "3177": "node",
    "3178": ".\u201d",
    "3179": "hand",
    "3180": "\u2581\u0431\u0443",
    "3181": "\u2581amb",
    "3182": "\u2581Lu",
    "3183": "\u2581throw",
    "3184": "\u2581mot",
    "3185": "\u2581Act",
    "3186": "\u2581world",
    "3187": "_\\",
    "3188": "base",
    "3189": "\u2581Co",
    "3190": "\u2581arch",
    "3191": "\u2581####",
    "3192": "ged",
    "3193": "pril",
    "3194": "older",
    "3195": "Model",
    "3196": "\u2581several",
    "3197": "lie",
    "3198": "check",
    "3199": "]{",
    "3200": "cons",
    "3201": "\u2581Tra",
    "3202": "heck",
    "3203": "\u2581least",
    "3204": "down",
    "3205": "ebru",
    "3206": "Def",
    "3207": "param",
    "3208": "ischer",
    "3209": "\u2581cas",
    "3210": "CH",
    "3211": "\u2581address",
    "3212": "\u2581\u0440\u0430\u0437",
    "3213": "ufen",
    "3214": "urope",
    "3215": "\u0435\u0439",
    "3216": "\u2581bound",
    "3217": "CO",
    "3218": "\u2581Ang",
    "3219": "\u2581Ma",
    "3220": "Index",
    "3221": "core",
    "3222": "ouch",
    "3223": "atabase",
    "3224": "ribution",
    "3225": "document",
    "3226": "Le",
    "3227": "}_{",
    "3228": "vern",
    "3229": "\u2581statement",
    "3230": "\u2581Brit",
    "3231": "ono",
    "3232": "psilon",
    "3233": "\u2581level",
    "3234": "\u2581product",
    "3235": "IS",
    "3236": "\u2581course",
    "3237": "\u2581Mr",
    "3238": ">\r",
    "3239": "\u2581background",
    "3240": "\u2581ret",
    "3241": "ering",
    "3242": "most",
    "3243": "\u0441\u044c\u043a\u043e",
    "3244": "\u2581thread",
    "3245": "itional",
    "3246": "ites",
    "3247": "Pl",
    "3248": "\u2581dos",
    "3249": "ga",
    "3250": "day",
    "3251": "\u2581Gener",
    "3252": "\u2581tw",
    "3253": "Ad",
    "3254": "\"><",
    "3255": "\u2581($",
    "3256": "\u2581moment",
    "3257": "title",
    "3258": "create",
    "3259": "version",
    "3260": "Manager",
    "3261": "\u2581fur",
    "3262": "pping",
    "3263": "ijn",
    "3264": "\u043e\u0441",
    "3265": "\u2581rather",
    "3266": "ptember",
    "3267": "OS",
    "3268": "\u2581site",
    "3269": "\u2581caus",
    "3270": "ani",
    "3271": "\u2581home",
    "3272": "\u043c\u0456",
    "3273": "\u2581short",
    "3274": "pa",
    "3275": "\u2581lead",
    "3276": "ished",
    "3277": "cing",
    "3278": "ording",
    "3279": "\u2581prote",
    "3280": "\u0441\u043b\u0435",
    "3281": "LECT",
    "3282": "\u2581didn",
    "3283": "position",
    "3284": "\",\"",
    "3285": "(),",
    "3286": "trans",
    "3287": "\u2581lot",
    "3288": "\u2581\u043e\u0434",
    "3289": "AS",
    "3290": "\u2581sat",
    "3291": "\u2581points",
    "3292": "github",
    "3293": "style",
    "3294": "\u2581\u0433\u043e\u0434\u0443",
    "3295": "\u2581Dis",
    "3296": "ponent",
    "3297": "omet",
    "3298": "zer",
    "3299": "ULL",
    "3300": "\u2581pa",
    "3301": "AP",
    "3302": "aces",
    "3303": "\u2581United",
    "3304": "ama",
    "3305": "ety",
    "3306": "Color",
    "3307": "\u2581enough",
    "3308": "US",
    "3309": "\u2581length",
    "3310": "());",
    "3311": "^{\\",
    "3312": "fty",
    "3313": "Box",
    "3314": "apter",
    "3315": "\u2581complet",
    "3316": "\u043d\u0438\u043a",
    "3317": "max",
    "3318": "object",
    "3319": "({",
    "3320": "imgur",
    "3321": "itive",
    "3322": "unch",
    "3323": "\u2581Sub",
    "3324": "ende",
    "3325": "\u0433\u0443",
    "3326": "ategory",
    "3327": "\u0442\u044b",
    "3328": "iano",
    "3329": "\u2581upd",
    "3330": "\u2581Aust",
    "3331": "}{\\",
    "3332": "top",
    "3333": "las",
    "3334": "pis",
    "3335": "iness",
    "3336": "\u2581{\r",
    "3337": "\u2581\u0415",
    "3338": "Gr",
    "3339": "\u2581AS",
    "3340": "\u2581\u0432\u0435",
    "3341": "thers",
    "3342": "\u2581defined",
    "3343": "azione",
    "3344": "\u2581offic",
    "3345": "\u2581autom",
    "3346": "\u00fcn",
    "3347": "\u2581brow",
    "3348": "\u2581serv",
    "3349": "\u2581remove",
    "3350": "iro",
    "3351": "\u2581Bibli",
    "3352": "ED",
    "3353": "\u2581whole",
    "3354": "\u2581\u0448",
    "3355": "\u2581Java",
    "3356": "\u2581zum",
    "3357": "ua",
    "3358": "pm",
    "3359": "dev",
    "3360": "\u043a\u0440\u0430",
    "3361": "olds",
    "3362": "\u2581War",
    "3363": "\u00e4n",
    "3364": "pass",
    "3365": "uz",
    "3366": "[\"",
    "3367": "\u2581tri",
    "3368": "ised",
    "3369": "\u0445\u0430",
    "3370": "\u2581memory",
    "3371": "\u2581Port",
    "3372": "oper",
    "3373": "Up",
    "3374": "\u2581Thank",
    "3375": "\u2581Mich",
    "3376": "ych",
    "3377": "board",
    "3378": "\u0431\u0443",
    "3379": "Inst",
    "3380": "\u2581begin",
    "3381": "ination",
    "3382": "\u2581Mod",
    "3383": "_,",
    "3384": "\u2581Den",
    "3385": "option",
    "3386": "\u2581construct",
    "3387": "\u2581Just",
    "3388": "Map",
    "3389": "run",
    "3390": "\u2581respect",
    "3391": "ham",
    "3392": "\u043c\u0430\u043d",
    "3393": "imedia",
    "3394": "\u2581apply",
    "3395": "cription",
    "3396": "main",
    "3397": "\u2581\u041a\u0430",
    "3398": "oid",
    "3399": "Code",
    "3400": "};",
    "3401": "Info",
    "3402": "\u2581format",
    "3403": "Log",
    "3404": "\u2581\u0441\u0443",
    "3405": "\u2581lat",
    "3406": "utor",
    "3407": "\u2581reference",
    "3408": "\u2581calcul",
    "3409": "onn",
    "3410": "Lo",
    "3411": "infty",
    "3412": "\u2581along",
    "3413": "\u2581\u010d",
    "3414": "\u2581task",
    "3415": "\u2581ev",
    "3416": "theta",
    "3417": "ras",
    "3418": "jor",
    "3419": "\u2581\u0431\u043e",
    "3420": "\u2581princip",
    "3421": "My",
    "3422": "\u2581einer",
    "3423": "\u2581Es",
    "3424": "omb",
    "3425": "quad",
    "3426": "^{-",
    "3427": "ump",
    "3428": "\u2581till",
    "3429": "\u0434\u0456",
    "3430": "\u2581looks",
    "3431": "\u2581ok",
    "3432": "\u0446\u0430",
    "3433": "nu",
    "3434": "Fil",
    "3435": "\u2581sont",
    "3436": "\u2581Med",
    "3437": "ague",
    "3438": "\u2581cost",
    "3439": "\u2581Sim",
    "3440": "\u2581comment",
    "3441": "\u2581(\\",
    "3442": "egen",
    "3443": "\u2581parameter",
    "3444": "\u2581France",
    "3445": "rep",
    "3446": "\u2581TH",
    "3447": "\u2581yet",
    "3448": "\u2581away",
    "3449": "\u2581circ",
    "3450": "\u2581API",
    "3451": "emp",
    "3452": "\u0432\u0456",
    "3453": "Layout",
    "3454": "\u2581lines",
    "3455": "\u2581Part",
    "3456": "empt",
    "3457": "\u2581Bi",
    "3458": "\u2581mind",
    "3459": "ky",
    "3460": "ging",
    "3461": "\u2581report",
    "3462": "\u2581Add",
    "3463": "\u0440\u043e\u0434",
    "3464": "\u2581range",
    "3465": "cias",
    "3466": "lip",
    "3467": "\u2581Kar",
    "3468": "\u2581Commons",
    "3469": "gerufen",
    "3470": "aff",
    "3471": "sec",
    "3472": "\u2581html",
    "3473": "lig",
    "3474": "\u2581window",
    "3475": "inition",
    "3476": "cis",
    "3477": "\u2581ut",
    "3478": "eln",
    "3479": "\u2581aux",
    "3480": "\u2581neg",
    "3481": "Hand",
    "3482": "\u2581);",
    "3483": "\u2581anal",
    "3484": "\u2581fri",
    "3485": "\u2581\u0441\u0438",
    "3486": "etch",
    "3487": "md",
    "3488": "page",
    "3489": "\u2581library",
    "3490": "\u2581:=",
    "3491": "ROM",
    "3492": "You",
    "3493": "space",
    "3494": "\u2581durch",
    "3495": "\u2581host",
    "3496": "aven",
    "3497": "\u2581File",
    "3498": "alle",
    "3499": "\u0442\u0438\u0432",
    "3500": "\u2581pap",
    "3501": "\u0441\u0442\u0432\u043e",
    "3502": "mark",
    "3503": "\u2581mais",
    "3504": "erman",
    "3505": "Size",
    "3506": "\u0435\u043a",
    "3507": "\u2581\u041c\u0430",
    "3508": "\u2581isn",
    "3509": "\u2581copy",
    "3510": "sten",
    "3511": "river",
    "3512": "\u2581went",
    "3513": "\u2581javascript",
    "3514": "\u2581sam",
    "3515": "\u2581frame",
    "3516": "\u2581vi",
    "3517": "\u2581previous",
    "3518": "rodu",
    "3519": "\u2581methods",
    "3520": "\u2581necess",
    "3521": "NA",
    "3522": "cket",
    "3523": "\u2581opt",
    "3524": "Loc",
    "3525": "how",
    "3526": "\u2581\u00een",
    "3527": "ship",
    "3528": "\u2581itself",
    "3529": "\u2581Please",
    "3530": "iene",
    "3531": "\u0432\u0435\u0440",
    "3532": "\u2581<<",
    "3533": "\u2581mill",
    "3534": "\u2581trad",
    "3535": "pace",
    "3536": "\u2581Har",
    "3537": "iten",
    "3538": "wise",
    "3539": "write",
    "3540": "\u0446\u0438\u0438",
    "3541": "\u0440\u044b",
    "3542": "Line",
    "3543": "olo",
    "3544": "\u2581accept",
    "3545": "height",
    "3546": "\u2581elect",
    "3547": "ella",
    "3548": "\u2581p\u00e5",
    "3549": "Select",
    "3550": "\u2581\u043b\u0438",
    "3551": "\u2581\\<",
    "3552": "((",
    "3553": "\u2581ID",
    "3554": "ops",
    "3555": "\u0432\u0430\u043d",
    "3556": "i\u00f3",
    "3557": "TP",
    "3558": "\u00bb,",
    "3559": "nection",
    "3560": "parent",
    "3561": "\u2581Mag",
    "3562": "Table",
    "3563": "Over",
    "3564": "\u2581network",
    "3565": "\u0441\u043f\u043e",
    "3566": "\u2581assign",
    "3567": "igger",
    "3568": "irm",
    "3569": ")`",
    "3570": "ottom",
    "3571": "beta",
    "3572": "\u2581dell",
    "3573": "\u2581body",
    "3574": "\u2581\u0434\u0430",
    "3575": "\u2581Your",
    "3576": "\u2581fue",
    "3577": "\u2581package",
    "3578": "\u2581light",
    "3579": "\u2581**",
    "3580": "MP",
    "3581": "\u2581cou",
    "3582": "yes",
    "3583": ":\\",
    "3584": "\u2581\u0427",
    "3585": "\u2581mention",
    "3586": "ensch",
    "3587": "\u2581deg",
    "3588": "\u2581convert",
    "3589": "\u2581Dav",
    "3590": "adt",
    "3591": "Result",
    "3592": "though",
    "3593": "\u2581bus",
    "3594": "xy",
    "3595": "\u2581seen",
    "3596": "All",
    "3597": "public",
    "3598": "ively",
    "3599": "\u2581Rec",
    "3600": "\u2581His",
    "3601": "sim",
    "3602": "\u2581f\u00f6r",
    "3603": "\u2581histor",
    "3604": "\u2581sett",
    "3605": "rat",
    "3606": "abled",
    "3607": "\u2581\u00bb,",
    "3608": "google",
    "3609": "Web",
    "3610": "\u00e9l",
    "3611": "\u2581title",
    "3612": "\u2581Janu",
    "3613": "\u0458\u0430",
    "3614": "\u2581took",
    "3615": "iden",
    "3616": "sz",
    "3617": "\u2581Get",
    "3618": "\u2581objects",
    "3619": "\u2581common",
    "3620": "\u2581changes",
    "3621": "\u2581Lond",
    "3622": "\u2581extern",
    "3623": "\u2581ju",
    "3624": "Is",
    "3625": "\u2581available",
    "3626": "tri",
    "3627": "\u2581m\u00e1s",
    "3628": "osa",
    "3629": "Be",
    "3630": "\u2581Data",
    "3631": "ural",
    "3632": "\u2581hom",
    "3633": "\u2581account",
    "3634": "oo",
    "3635": "\u2581perm",
    "3636": "respond",
    "3637": "yt",
    "3638": "\u2581send",
    "3639": "\u2581returns",
    "3640": "ivid",
    "3641": "\u2581expla",
    "3642": "\u00edn",
    "3643": "\u2581nor",
    "3644": "If",
    "3645": "\u2581From",
    "3646": "\u2581target",
    "3647": "fect",
    "3648": "\u0435\u043d\u0442",
    "3649": "\u2581uit",
    "3650": "\u2581Jo",
    "3651": "\u2581variables",
    "3652": "\u2581series",
    "3653": "\u2581func",
    "3654": "\u2581himself",
    "3655": "\u2581\u0447\u0430",
    "3656": "anti",
    "3657": "\u2581ach",
    "3658": "ialog",
    "3659": "\u2581std",
    "3660": "ae",
    "3661": "\u2581foot",
    "3662": "\u2581unter",
    "3663": "gress",
    "3664": "Not",
    "3665": "rad",
    "3666": "f\u00e9r",
    "3667": "\u2581util",
    "3668": "orem",
    "3669": "\u2581sou",
    "3670": "opt",
    "3671": "\u2581og",
    "3672": "\u2581uma",
    "3673": "itar",
    "3674": "\u2581Ok",
    "3675": "\u00fcck",
    "3676": "sqrt",
    "3677": "\u2581ant",
    "3678": "\u2581werden",
    "3679": "\u00e5r",
    "3680": "});",
    "3681": "\u2581Paris",
    "3682": "\u2581exception",
    "3683": "\u2581determ",
    "3684": "\u2581Vol",
    "3685": "\u2581Sam",
    "3686": "\u2581ess",
    "3687": "lies",
    "3688": "ioni",
    "3689": "oding",
    "3690": "idget",
    "3691": "\u2581pri",
    "3692": "\u2581whether",
    "3693": "\u2581\u043f\u043e\u0434",
    "3694": "\u2581numbers",
    "3695": "\u2581~",
    "3696": "event",
    "3697": "\u2581shows",
    "3698": "atures",
    "3699": "\u2581house",
    "3700": "\u2581face",
    "3701": "\u2581si\u0119",
    "3702": "vironment",
    "3703": "van",
    "3704": "\u2581including",
    "3705": "\u2581<-",
    "3706": "times",
    "3707": "now",
    "3708": "\u2581pur",
    "3709": "ifier",
    "3710": "\u2581emp",
    "3711": "\u2581cla",
    "3712": "mon",
    "3713": "\u2581Das",
    "3714": "ady",
    "3715": "\u2581\u0432\u0456\u0434",
    "3716": "\u2581\u0446",
    "3717": "abor",
    "3718": "OST",
    "3719": "\u2581band",
    "3720": "\u2581\u00fa",
    "3721": "\u2581exactly",
    "3722": "iert",
    "3723": "avig",
    "3724": "\u2581redu",
    "3725": "\u2581SE",
    "3726": "lished",
    "3727": "Bu",
    "3728": "Message",
    "3729": "cell",
    "3730": "fully",
    "3731": "\u2581sv",
    "3732": "\u2581makes",
    "3733": "pol",
    "3734": "\u2581required",
    "3735": "ferrer",
    "3736": "\u2581pers",
    "3737": "\u2581mi",
    "3738": "FI",
    "3739": "\u2581Paul",
    "3740": "\u2581UI",
    "3741": "\u2581Bel",
    "3742": "inc",
    "3743": "\u2581contains",
    "3744": "Out",
    "3745": "asure",
    "3746": "pu",
    "3747": "oto",
    "3748": "\u2581game",
    "3749": "zn",
    "3750": "\u2581Why",
    "3751": "orith",
    "3752": "big",
    "3753": "\u043a\u0438\u0439",
    "3754": "sigma",
    "3755": "\u2581quite",
    "3756": "\u2581jed",
    "3757": "rec",
    "3758": "\u2581SQL",
    "3759": "\u0431\u0435",
    "3760": "\u2581Mart",
    "3761": "ya",
    "3762": "\u2581school",
    "3763": "\u2581simply",
    "3764": "\u2581vor",
    "3765": "\u2581double",
    "3766": "\u0440\u0430\u0432",
    "3767": "\u2581Str",
    "3768": "iem",
    "3769": "\u2581album",
    "3770": "\u2581resol",
    "3771": "\u2581dei",
    "3772": "\u2581Wik",
    "3773": "\u2581aw",
    "3774": "umb",
    "3775": "ols",
    "3776": "\u2581*/",
    "3777": "\u2581ze",
    "3778": "\u2581anim",
    "3779": "/>",
    "3780": "ris",
    "3781": "resh",
    "3782": "No",
    "3783": "iques",
    "3784": "current",
    "3785": "\u2581period",
    "3786": "\u2581April",
    "3787": "\u2581store",
    "3788": "','",
    "3789": "\u2581Set",
    "3790": "={",
    "3791": "ached",
    "3792": "\u2581Mal",
    "3793": "\u2581Pal",
    "3794": "antes",
    "3795": "aterial",
    "3796": "\u2581worked",
    "3797": "leq",
    "3798": "oreferrer",
    "3799": "\u2581happen",
    "3800": "\u2581box",
    "3801": "ney",
    "3802": "\u2581close",
    "3803": "\u2581gran",
    "3804": "\u2581lie",
    "3805": "\u2581ir",
    "3806": "\u2581expected",
    "3807": "\u2581\u0434\u043b\u044f",
    "3808": "click",
    "3809": "\u0219i",
    "3810": "\u2581parte",
    "3811": "ogn",
    "3812": "\u2581Form",
    "3813": "\u2581memb",
    "3814": "\u2581plan",
    "3815": "\u2581team",
    "3816": "][",
    "3817": "\u2581commun",
    "3818": "orry",
    "3819": "ency",
    "3820": "gl",
    "3821": "inary",
    "3822": "cdot",
    "3823": "^\\",
    "3824": "\u2581First",
    "3825": "ander",
    "3826": "\u2581Dec",
    "3827": "request",
    "3828": "\u0441\u0442\u0432\u0430",
    "3829": "\u2581structure",
    "3830": "\u2581||",
    "3831": "\u2581Comp",
    "3832": "actory",
    "3833": "\u2581Mil",
    "3834": "\u2581Some",
    "3835": "Stream",
    "3836": "\u2581assum",
    "3837": "uen",
    "3838": "\u2581words",
    "3839": "\u2581September",
    "3840": "\u2581\u041a\u043e",
    "3841": "\u2581days",
    "3842": "ories",
    "3843": "\u0441\u0442\u0430\u0432",
    "3844": "sm",
    "3845": "vin",
    "3846": "partial",
    "3847": "\u2581parent",
    "3848": "oj",
    "3849": "\u043d\u0438\u0438",
    "3850": "!\"",
    "3851": "ugin",
    "3852": "\u2581Windows",
    "3853": "Ed",
    "3854": ":}",
    "3855": "\u2581q",
    "3856": "\u2581ben",
    "3857": "iana",
    "3858": "\u2581label",
    "3859": "state",
    "3860": "uted",
    "3861": "\u2581()",
    "3862": "\u2581\u0441\u0432\u043e",
    "3863": "\u2581edit",
    "3864": "uring",
    "3865": "\u2581NS",
    "3866": "\u2581Jahr",
    "3867": "\u2581provide",
    "3868": "He",
    "3869": "\u2581Yes",
    "3870": "anel",
    "3871": "ename",
    "3872": "\u2581Don",
    "3873": "isk",
    "3874": "gra",
    "3875": "elij",
    "3876": "\u2581root",
    "3877": "*/",
    "3878": "\u2581Fre",
    "3879": "\u2581Mor",
    "3880": "used",
    "3881": "range",
    "3882": "\u2581tamb",
    "3883": "\u2581module",
    "3884": "\u2581directory",
    "3885": "ounds",
    "3886": "Activity",
    "3887": "\u2581mu",
    "3888": "info",
    "3889": "\u2581free",
    "3890": "orge",
    "3891": "tab",
    "3892": ")=",
    "3893": "lang",
    "3894": "\u2581\u043e\u0441",
    "3895": "\u2581FROM",
    "3896": "\u2581enter",
    "3897": "\u2581became",
    "3898": "idae",
    "3899": "\u0445\u0438",
    "3900": "\u2581States",
    "3901": "verse",
    "3902": "\u2581expl",
    "3903": "ynt",
    "3904": "UN",
    "3905": "ee",
    "3906": "endent",
    "3907": "\u2581making",
    "3908": "\u2581\"$",
    "3909": "uni",
    "3910": "quence",
    "3911": "\u2581lui",
    "3912": "HT",
    "3913": "\u2581uses",
    "3914": "zie",
    "3915": "nia",
    "3916": "Content",
    "3917": "\u2581Count",
    "3918": "\u2581standard",
    "3919": "ENT",
    "3920": "\u2581\u043a\u043e\u043d",
    "3921": "fort",
    "3922": "adas",
    "3923": "\u0437\u0443",
    "3924": "System",
    "3925": "\u2581Sw",
    "3926": "\u2581ever",
    "3927": "LO",
    "3928": "\u2581correspond",
    "3929": "\u2581Po",
    "3930": "argin",
    "3931": "\u043a\u0442",
    "3932": "\u0456\u0439",
    "3933": "\u2581remain",
    "3934": "cio",
    "3935": "\u2581actual",
    "3936": "\u0441\u0442\u0443",
    "3937": "\u2581sind",
    "3938": "\u2581Pe",
    "3939": "\u2581changed",
    "3940": "\u2581Note",
    "3941": "skie",
    "3942": "\u2581family",
    "3943": "it\u00e0",
    "3944": "cos",
    "3945": "txt",
    "3946": "ker",
    "3947": "ceed",
    "3948": "\u2581arr",
    "3949": "\u2581cam",
    "3950": "izer",
    "3951": "\u2581Dan",
    "3952": "hel",
    "3953": "icult",
    "3954": "HP",
    "3955": "iler",
    "3956": "\u2581Sal",
    "3957": "\u2581connection",
    "3958": "usion",
    "3959": "kn",
    "3960": "RI",
    "3961": "\u2581vom",
    "3962": "Listener",
    "3963": "\u2581\u00f6",
    "3964": "\u2581dim",
    "3965": "\u2581press",
    "3966": "\u2581esc",
    "3967": "\u2581Try",
    "3968": "atalog",
    "3969": "\u2581thanks",
    "3970": "DO",
    "3971": "\u2581written",
    "3972": "dir",
    "3973": "rew",
    "3974": "\u2581fire",
    "3975": "\u2581Nach",
    "3976": "\u2581\u00e1",
    "3977": "enc",
    "3978": "\u2581origin",
    "3979": "\u2581November",
    "3980": "\u2581};",
    "3981": "Count",
    "3982": "\u2581\u0417\u0430",
    "3983": "\u2581graph",
    "3984": "\u2581mis",
    "3985": "\u2581External",
    "3986": "\u2581\u2581\u2581\u2581\u2581\u2581\u2581\u2581\u2581",
    "3987": "\u2581options",
    "3988": "\u2581URL",
    "3989": "\u2581php",
    "3990": "\u2581integr",
    "3991": "Config",
    "3992": "\u2581Text",
    "3993": "inner",
    "3994": "\u2581crit",
    "3995": ",\u201d",
    "3996": "\u2581tog",
    "3997": "$$",
    "3998": "nof",
    "3999": "\u2581ses",
    "4000": "\u00fchr",
    "4001": "\u2581Since",
    "4002": "Des",
    "4003": "ube",
    "4004": "\u2581section",
    "4005": "\u2581gi",
    "4006": "ford",
    "4007": "\u2581Ass",
    "4008": "ainer",
    "4009": "ttp",
    "4010": "\u2581behav",
    "4011": "ports",
    "4012": "draw",
    "4013": "This",
    "4014": "ranch",
    "4015": "inding",
    "4016": "\u2581estab",
    "4017": "\u2581obtain",
    "4018": "rich",
    "4019": "licit",
    "4020": "\u0435\u0432",
    "4021": "\u2581qual",
    "4022": "\u2581za",
    "4023": "\u2581har",
    "4024": "\u2581fac",
    "4025": "aar",
    "4026": "jet",
    "4027": "icles",
    "4028": "\u2581Aus",
    "4029": "\u2581hor",
    "4030": "\u2581remov",
    "4031": "\u2581wie",
    "4032": "Client",
    "4033": "\u2581natur",
    "4034": "hip",
    "4035": "Sub",
    "4036": "\u2581random",
    "4037": "DF",
    "4038": "\u2581area",
    "4039": "tag",
    "4040": "Pr",
    "4041": "\u2581Ital",
    "4042": "\u2581roku",
    "4043": "nofollow",
    "4044": "*}",
    "4045": "\u2581others",
    "4046": "\u2581limit",
    "4047": "\u2581sil",
    "4048": "\u2581sav",
    "4049": "\u2581often",
    "4050": "\u2581render",
    "4051": "DB",
    "4052": "\u2581Mc",
    "4053": "\u2581zijn",
    "4054": "\u0436\u0435\u043d",
    "4055": "\u2581tag",
    "4056": "ming",
    "4057": "lichen",
    "4058": "pack",
    "4059": "\u2581Ag",
    "4060": "\u2581sense",
    "4061": "pg",
    "4062": "Method",
    "4063": "aged",
    "4064": "\u00e1g",
    "4065": "\u0142a",
    "4066": "\u2581interest",
    "4067": "\u2581associ",
    "4068": "volution",
    "4069": "\u2581empty",
    "4070": "iche",
    "4071": "\u2581gro",
    "4072": "\u2581types",
    "4073": "\u2581Sie",
    "4074": "Inter",
    "4075": "\u2581noreferrer",
    "4076": "\u2581gives",
    "4077": "hal",
    "4078": "\u2581save",
    "4079": "\u2581font",
    "4080": "ruction",
    "4081": "Script",
    "4082": "\u2581alla",
    "4083": "\u2581says",
    "4084": "\u2581fu",
    "4085": "ape",
    "4086": "\u2581language",
    "4087": "iger",
    "4088": "\u2581King",
    "4089": "bor",
    "4090": "uv",
    "4091": "\u2581shall",
    "4092": "\u2581Europe",
    "4093": "\u2581einem",
    "4094": "\u2581water",
    "4095": "\u2581govern",
    "4096": "anz",
    "4097": "ators",
    "4098": "\u2581month",
    "4099": "ye",
    "4100": "\u2581important",
    "4101": "atz",
    "4102": "first",
    "4103": "\u2581Trans",
    "4104": "\u2581Mad",
    "4105": "\u2581bra",
    "4106": "ika",
    "4107": "\u2581Saint",
    "4108": "oria",
    "4109": "kre",
    "4110": "ements",
    "4111": "\u2581Ben",
    "4112": "lav",
    "4113": "\u2581admin",
    "4114": "\u2581Hen",
    "4115": "ril",
    "4116": "\u2581Sm",
    "4117": "cat",
    "4118": "\u2581Refer",
    "4119": "\u2581\u0428",
    "4120": "\u2581pract",
    "4121": "\u2581Pat",
    "4122": "\u2581Gre",
    "4123": "\u2581young",
    "4124": "\u2581Inter",
    "4125": "oma",
    "4126": "teger",
    "4127": "ibility",
    "4128": "\u2581parameters",
    "4129": "\u2581everything",
    "4130": "dat",
    "4131": "urop",
    "4132": "olean",
    "4133": "\u2581returned",
    "4134": "\u2581Class",
    "4135": "acy",
    "4136": "####",
    "4137": "\u2581p\u0159",
    "4138": "\u2581folder",
    "4139": "\u2581kon",
    "4140": "\u2581guess",
    "4141": "gt",
    "4142": "jen",
    "4143": "annel",
    "4144": "icon",
    "4145": "\u2581comb",
    "4146": "rict",
    "4147": "\u2581hij",
    "4148": "\u2581author",
    "4149": "see",
    "4150": "here",
    "4151": "stra",
    "4152": "\u2581entire",
    "4153": "\u2581directly",
    "4154": "raft",
    "4155": "heet",
    "4156": "ester",
    "4157": "\u2581\u043c\u0438",
    "4158": "\u2581mass",
    "4159": "untu",
    "4160": "\u2581users",
    "4161": "chi",
    "4162": "PE",
    "4163": "\u2581component",
    "4164": "Click",
    "4165": "Att",
    "4166": "\u2581sobre",
    "4167": "ands",
    "4168": "\u2581Hol",
    "4169": "\u2581Sant",
    "4170": "ori",
    "4171": "\u2581sua",
    "4172": "std",
    "4173": "entic",
    "4174": "CC",
    "4175": "\u2581filter",
    "4176": "SQL",
    "4177": "\u2581God",
    "4178": "At",
    "4179": "\u2581\u043c\u0443",
    "4180": "\u2581performance",
    "4181": "delta",
    "4182": "ande",
    "4183": "amer",
    "4184": "\u0434\u044b",
    "4185": "\u2581cult",
    "4186": "\u2581Nor",
    "4187": "but",
    "4188": "\u2581lik",
    "4189": "********",
    "4190": "\u0441\u0442\u0432\u0435\u043d",
    "4191": "\u2581comme",
    "4192": "\u2581dr",
    "4193": "imer",
    "4194": "ordin",
    "4195": "\u2581condition",
    "4196": "este",
    "4197": "([",
    "4198": "FF",
    "4199": "\u0442\u044c\u0441\u044f",
    "4200": "imo",
    "4201": "rab",
    "4202": "\u0456\u043b\u044c",
    "4203": "\u2581half",
    "4204": "each",
    "4205": "Dis",
    "4206": "\u2581rows",
    "4207": "\u2581hon",
    "4208": "\u2581together",
    "4209": "\u2581\u0219i",
    "4210": "medi",
    "4211": "agn",
    "4212": "alled",
    "4213": "\u2581vill",
    "4214": "ING",
    "4215": "idden",
    "4216": "\u2581draw",
    "4217": "yntax",
    "4218": "\u2581attempt",
    "4219": "URL",
    "4220": "pose",
    "4221": "\u2581indic",
    "4222": "\u043d\u0438\u043a\u0430",
    "4223": "\u2581English",
    "4224": "\u2581d\u00e9c",
    "4225": "\u2581needs",
    "4226": "\u2581normal",
    "4227": "urt",
    "4228": "\u2581\u043d\u043e",
    "4229": "}}\\",
    "4230": "last",
    "4231": "\u2581Fin",
    "4232": "\u2581Febru",
    "4233": "ila",
    "4234": "\u2581country",
    "4235": "\u2581fields",
    "4236": "\u2581max",
    "4237": "l\u00e9s",
    "4238": "owie",
    "4239": "\u2581deux",
    "4240": "\u2581built",
    "4241": "\u2581Main",
    "4242": "\u2581camp",
    "4243": "ivo",
    "4244": "iva",
    "4245": "icy",
    "4246": "zione",
    "4247": "Node",
    "4248": "\u2581:)",
    "4249": "\u2581among",
    "4250": "\u2581Ob",
    "4251": "\u2581cases",
    "4252": "haps",
    "4253": "sers",
    "4254": "arter",
    "4255": "\u015bci",
    "4256": "\u2581iter",
    "4257": "\u2581named",
    "4258": "exec",
    "4259": "\u2581season",
    "4260": "tot",
    "4261": "=>",
    "4262": "graph",
    "4263": "\u2581nil",
    "4264": "acional",
    "4265": "\u2581NULL",
    "4266": "\u2581special",
    "4267": "\u0441\u0442\u0435",
    "4268": "css",
    "4269": "\u2581\\(",
    "4270": "vs",
    "4271": "ael",
    "4272": "\u2581city",
    "4273": "ova",
    "4274": "\u2581article",
    "4275": "\u2581South",
    "4276": "Action",
    "4277": "\u00e7a",
    "4278": "spring",
    "4279": "itude",
    "4280": "\u2581complex",
    "4281": "\u2581\u0447\u0442\u043e",
    "4282": "build",
    "4283": "gamma",
    "4284": "\u2581Ent",
    "4285": "iers",
    "4286": "'.",
    "4287": "car",
    "4288": "apache",
    "4289": "ingen",
    "4290": "Input",
    "4291": ":\u2009",
    "4292": "\u2581dynam",
    "4293": "alls",
    "4294": "show",
    "4295": "|\\",
    "4296": "\u2581wird",
    "4297": "Bar",
    "4298": "alth",
    "4299": "model",
    "4300": "Trans",
    "4301": "Row",
    "4302": "abe",
    "4303": "\u2581lib",
    "4304": "null",
    "4305": "ragment",
    "4306": "\u2581State",
    "4307": "\u2581law",
    "4308": "Frame",
    "4309": "\u2581Lo",
    "4310": "geb",
    "4311": "}$.",
    "4312": "\u2581needed",
    "4313": "\u2581contr",
    "4314": "aries",
    "4315": "\u2581screen",
    "4316": "yr",
    "4317": "mm",
    "4318": "\u2581shown",
    "4319": "\u2581bad",
    "4320": "\u2581cast",
    "4321": "\u2581Test",
    "4322": "\u2581Auf",
    "4323": "\u2581quant",
    "4324": "iga",
    "4325": "\u2581ren",
    "4326": "\u2581Mac",
    "4327": "\u2581transform",
    "4328": "\u2581difference",
    "4329": "\u2581tit",
    "4330": "TE",
    "4331": "\u2581step",
    "4332": "\u2581capt",
    "4333": "\u2581collection",
    "4334": "ictionary",
    "4335": "\u2581Tom",
    "4336": "rier",
    "4337": "\u2581move",
    "4338": "cope",
    "4339": "ords",
    "4340": "\u2581further",
    "4341": "\u2581columns",
    "4342": "\u2581Lin",
    "4343": "\u2581fixed",
    "4344": "\u2581children",
    "4345": "MS",
    "4346": "mo",
    "4347": "una",
    "4348": "\u2581individ",
    "4349": "tty",
    "4350": "aste",
    "4351": "src",
    "4352": "match",
    "4353": "wi",
    "4354": "\u2581\u0445",
    "4355": "\u2581\u0434\u0438",
    "4356": "\u2581ord",
    "4357": "iving",
    "4358": "\u2581Bro",
    "4359": "\u2581almost",
    "4360": "\u2581Pres",
    "4361": "reci",
    "4362": "aring",
    "4363": "\u2581///",
    "4364": "\u0435\u0442\u0441\u044f",
    "4365": "\u2581sig",
    "4366": "light",
    "4367": "\u2581Red",
    "4368": "\u2581suggest",
    "4369": "olf",
    "4370": "\u2581\u00e9t\u00e9",
    "4371": "isation",
    "4372": "\u0437\u043d\u0430",
    "4373": "New",
    "4374": "\u0441\u0442\u0430\u043d",
    "4375": "LA",
    "4376": "unicip",
    "4377": "\u2581figure",
    "4378": "mt",
    "4379": "iale",
    "4380": "\u2581catch",
    "4381": "default",
    "4382": "\u2581tele",
    "4383": "\u2581matter",
    "4384": "cast",
    "4385": "\u2581Rich",
    "4386": "\u2581handle",
    "4387": "valu",
    "4388": "$-",
    "4389": "\u043e\u0431",
    "4390": "\u2581json",
    "4391": "Create",
    "4392": "\u2581exam",
    "4393": "\u0430\u043b\u044c",
    "4394": "\u044e\u0442",
    "4395": "ored",
    "4396": "idos",
    "4397": "append",
    "4398": "\u2581Array",
    "4399": "\u043a\u0441",
    "4400": "}[",
    "4401": "rive",
    "4402": "\u2581club",
    "4403": "mann",
    "4404": "\u2581este",
    "4405": "esta",
    "4406": "\u2581Gi",
    "4407": "\u2581Jap",
    "4408": "\u2581Name",
    "4409": "Column",
    "4410": "oups",
    "4411": "ismo",
    "4412": "\u2581City",
    "4413": "\u2581classes",
    "4414": "\u2581infl",
    "4415": "hl",
    "4416": "\u0440\u043e\u043c",
    "4417": "\u2581adding",
    "4418": "\u2581fail",
    "4419": "xx",
    "4420": "\u00f5es",
    "4421": "Sc",
    "4422": "util",
    "4423": "\u2581location",
    "4424": "lege",
    "4425": "ago",
    "4426": "\u2581properties",
    "4427": "abil",
    "4428": "vas",
    "4429": "}$,",
    "4430": "itted",
    "4431": "\u00f3d",
    "4432": "\u2581Dem",
    "4433": "\u2581asked",
    "4434": "\u2581tab",
    "4435": "Source",
    "4436": "\u2581errors",
    "4437": "ographie",
    "4438": "\u2581\u0436\u0438",
    "4439": "\u2581mal",
    "4440": "stract",
    "4441": "\u2581dro",
    "4442": "rak",
    "4443": "\u2581note",
    "4444": "\u2581setting",
    "4445": "\u2581fem",
    "4446": "\u2581saw",
    "4447": "iar",
    "4448": "HER",
    "4449": "\u0435\u0441",
    "4450": "\u2581pred",
    "4451": "\u2581Out",
    "4452": "\u2581items",
    "4453": "\u043b\u0430\u043d",
    "4454": "\u2581werd",
    "4455": "ersion",
    "4456": "lia",
    "4457": "\u2581sin",
    "4458": "ichte",
    "4459": "\u2581feel",
    "4460": "\u2581\u043f\u0440\u0430",
    "4461": "\u2581oder",
    "4462": "UE",
    "4463": "ocument",
    "4464": "\u2581mode",
    "4465": "\u2581Na",
    "4466": "\u0434\u0435\u043d",
    "4467": "mes",
    "4468": "framework",
    "4469": "\u2581auto",
    "4470": "\u043d\u044b\u043c",
    "4471": "uby",
    "4472": "\u2581template",
    "4473": "\u2581mess",
    "4474": "ieder",
    "4475": "\u2581related",
    "4476": "oken",
    "4477": "\u2581follows",
    "4478": "search",
    "4479": "ami",
    "4480": "\u2581wait",
    "4481": "igr",
    "4482": "\u2581low",
    "4483": "\u0441\u043a\u0438\u0445",
    "4484": "\u0441\u043a\u0430\u044f",
    "4485": "\u2581Mark",
    "4486": "\u2581ill",
    "4487": "amento",
    "4488": "\\<",
    "4489": "\u2581df",
    "4490": "osition",
    "4491": "\u2581\u0412\u0438",
    "4492": "isf",
    "4493": "\u2581Deutsch",
    "4494": "ahl",
    "4495": "war",
    "4496": "itect",
    "4497": "\u2581sal",
    "4498": "elen",
    "4499": "ById",
    "4500": "\u2581gru",
    "4501": "sv",
    "4502": "\u2581passed",
    "4503": "\u2581a\u00f1",
    "4504": "Sch",
    "4505": "\u2581solve",
    "4506": "weise",
    "4507": "atos",
    "4508": "\u2581meg",
    "4509": "\u2581member",
    "4510": "ername",
    "4511": "\u2581connect",
    "4512": "ips",
    "4513": "\u2581round",
    "4514": "\u2581]",
    "4515": "nes",
    "4516": "\u2581dir",
    "4517": "\u2581London",
    "4518": "dy",
    "4519": "FA",
    "4520": "\u2581received",
    "4521": "reet",
    "4522": "\u2581Log",
    "4523": "\u2581School",
    "4524": "ango",
    "4525": "\u2581These",
    "4526": "\u2581Mont",
    "4527": "\u2581ener",
    "4528": "lad",
    "4529": "\u2581define",
    "4530": "sign",
    "4531": "\u2581cle",
    "4532": "figure",
    "4533": "\u2581View",
    "4534": "textbf",
    "4535": "$\\",
    "4536": "\u0437\u044b",
    "4537": "number",
    "4538": "\u2581din",
    "4539": "eller",
    "4540": "orithm",
    "4541": "false",
    "4542": "fol",
    "4543": "fficient",
    "4544": "\u2581HTML",
    "4545": "liche",
    "4546": "\u2581Mo",
    "4547": "\u2581introdu",
    "4548": "exp",
    "4549": "\u2581strong",
    "4550": "\u2581thus",
    "4551": "/)",
    "4552": "\u2581ele",
    "4553": "\u2581\u0442\u0430\u043a",
    "4554": "\u2581\u043f\u0430",
    "4555": "\u2581dont",
    "4556": "\u2581cause",
    "4557": "Number",
    "4558": "\u2581images",
    "4559": "\u2581sample",
    "4560": "\u2581sci",
    "4561": "like",
    "4562": "\u2581Lou",
    "4563": "div",
    "4564": "anc",
    "4565": "\u2581front",
    "4566": "nen",
    "4567": "\u2581missing",
    "4568": "aria",
    "4569": "pres",
    "4570": "\u2581\u043f\u0440\u0435\u0434",
    "4571": "DI",
    "4572": "filter",
    "4573": "\u2581Mit",
    "4574": "UR",
    "4575": "\u2581opp",
    "4576": "\u2581sql",
    "4577": "\u2581\u0440\u043e\u043a\u0443",
    "4578": "eren",
    "4579": "emat",
    "4580": "\u00eds",
    "4581": "\u2581Jean",
    "4582": "\u00e9c",
    "4583": "\u2581ci",
    "4584": "enne",
    "4585": "atform",
    "4586": "\u2581taken",
    "4587": "\u2581Of",
    "4588": "\u2581\u043d\u0430\u0441\u0435",
    "4589": "\u2581err",
    "4590": "OP",
    "4591": "From",
    "4592": "Default",
    "4593": "\u2581General",
    "4594": "wiki",
    "4595": "\u2581grand",
    "4596": "\u2581einen",
    "4597": "Reg",
    "4598": "Handler",
    "4599": "conom",
    "4600": "anger",
    "4601": "\u2581\u0431\u044b\u043b",
    "4602": "\u2581Los",
    "4603": "\u2581expression",
    "4604": "\u0448\u0430",
    "4605": "yal",
    "4606": "\u2581$('",
    "4607": "\u2581switch",
    "4608": "\u2581vector",
    "4609": "\u2581Thom",
    "4610": "\u2581virt",
    "4611": "leased",
    "4612": "\u2581cover",
    "4613": "\u2581resp",
    "4614": "ako",
    "4615": "rench",
    "4616": "ota",
    "4617": "Cell",
    "4618": "anged",
    "4619": "\u2581+=",
    "4620": "lac",
    "4621": "ska",
    "4622": "next",
    "4623": "\u2581International",
    "4624": "\u2581Wil",
    "4625": "\u2581ont",
    "4626": "ibr",
    "4627": "ustr",
    "4628": "\u2581black",
    "4629": "\u2581selected",
    "4630": "cher",
    "4631": "\u2581liter",
    "4632": "root",
    "4633": "\u043b\u0441\u044f",
    "4634": "\u2581Life",
    "4635": "\u2581insert",
    "4636": "\u2581matrix",
    "4637": "ises",
    "4638": ")]",
    "4639": "\u2581pel",
    "4640": "Override",
    "4641": "rypt",
    "4642": "\u2581former",
    "4643": "\u2581Film",
    "4644": "\u2581North",
    "4645": "client",
    "4646": "\u2581night",
    "4647": "\u0445\u043e\u0434\u0438",
    "4648": "\u2581Austral",
    "4649": "\u2581Ret",
    "4650": "rho",
    "4651": "\u2581\u043f\u0435\u0440",
    "4652": "ipedia",
    "4653": "\u2581express",
    "4654": "\u2581third",
    "4655": "\u2581major",
    "4656": "\u2581grad",
    "4657": "owe",
    "4658": "\u2581believe",
    "4659": "ournal",
    "4660": "\u2581status",
    "4661": "unc",
    "4662": "\u2581dou",
    "4663": "\u2581JSON",
    "4664": "uis",
    "4665": "\u2581population",
    "4666": "enz",
    "4667": "\u2581William",
    "4668": "sf",
    "4669": "\u2581Object",
    "4670": "\u2581cin",
    "4671": "\u2581Di",
    "4672": "curity",
    "4673": "\u2581Open",
    "4674": "\u2581\u043b\u0435",
    "4675": "lar",
    "4676": "adding",
    "4677": "\u2581kom",
    "4678": "}(\\",
    "4679": "\u2581kil",
    "4680": "umer",
    "4681": "\"/>",
    "4682": "\u2581feature",
    "4683": "\u2581Are",
    "4684": "cks",
    "4685": "\u2581Internet",
    "4686": "\u2581ih",
    "4687": "\u2581started",
    "4688": "\u2581early",
    "4689": "\u2581began",
    "4690": "TH",
    "4691": "python",
    "4692": "asp",
    "4693": "\u2581Fr",
    "4694": "\u2581clos",
    "4695": "istic",
    "4696": "\u2581music",
    "4697": "\u2581dig",
    "4698": "\u2581ital",
    "4699": "\u2581David",
    "4700": "\u2581website",
    "4701": "\u2581controller",
    "4702": "\u2581Mer",
    "4703": "context",
    "4704": "product",
    "4705": "osp",
    "4706": "\u2581\u2581\u2581\u2581\u2581\u2581\u2581",
    "4707": "\u2581jun",
    "4708": "rown",
    "4709": "\u2581Az",
    "4710": "\":\"",
    "4711": "\u2581aan",
    "4712": "\u2581Date",
    "4713": "mult",
    "4714": "\u2581browser",
    "4715": "\u0440\u0435\u0434",
    "4716": "which",
    "4717": "RA",
    "4718": "quare",
    "4719": "\u2581Russ",
    "4720": "\u2581soon",
    "4721": "\u2581Pre",
    "4722": "tau",
    "4723": "\u2581week",
    "4724": "\u2581\u0431\u0430",
    "4725": "\u2581oct",
    "4726": "\u2581town",
    "4727": "roy",
    "4728": "\u2581els",
    "4729": "blic",
    "4730": "undle",
    "4731": "\u2581Histor",
    "4732": "\u2581foi",
    "4733": "\u2581models",
    "4734": "\u0437\u043e",
    "4735": "onym",
    "4736": "Param",
    "4737": "\u2581Met",
    "4738": "gener",
    "4739": "j\u0105",
    "4740": "\u2581espe",
    "4741": "CE",
    "4742": "\u2581device",
    "4743": "ellow",
    "4744": "\u2581debug",
    "4745": "\u00e9rie",
    "4746": "using",
    "4747": "\u0430\u043d\u0433",
    "4748": "\u2581*)",
    "4749": "udi",
    "4750": "\u2581Miss",
    "4751": "\u043a\u043e\u043c",
    "4752": "posed",
    "4753": "\u2581zwe",
    "4754": "\u0456\u043d",
    "4755": "\u2581Robert",
    "4756": "\u2581Oct",
    "4757": "lop",
    "4758": "jar",
    "4759": "\u2581aver",
    "4760": "\u2581habit",
    "4761": "\u2581::",
    "4762": "\u00e4ng",
    "4763": "Start",
    "4764": "\u2581pow",
    "4765": "\u2581src",
    "4766": "\u2581pattern",
    "4767": "\u2581\u042d",
    "4768": "\u2581bi",
    "4769": "otes",
    "4770": "\u2581__",
    "4771": "\u2581sens",
    "4772": "\u2581avoid",
    "4773": "example",
    "4774": "utt",
    "4775": "Label",
    "4776": "tex",
    "4777": "boot",
    "4778": "esto",
    "4779": "\u2581March",
    "4780": "\u2581easy",
    "4781": "icture",
    "4782": "Group",
    "4783": "\u2581father",
    "4784": "\u2581updated",
    "4785": "\u2581Vo",
    "4786": "\u2581III",
    "4787": "omega",
    "4788": "\u2581alle",
    "4789": "Rec",
    "4790": "yg",
    "4791": "\u0437\u0435",
    "4792": "\u2581Dim",
    "4793": "nect",
    "4794": "\u2581Tor",
    "4795": "\u2581deutsch",
    "4796": "\u2581white",
    "4797": "\u2581national",
    "4798": "ppe",
    "4799": "\u2581air",
    "4800": "\u2581password",
    "4801": "det",
    "4802": "\u2581big",
    "4803": "\u2581Use",
    "4804": "call",
    "4805": "\u2581extra",
    "4806": "We",
    "4807": "ania",
    "4808": "\u2581hold",
    "4809": "Control",
    "4810": "\u2581CO",
    "4811": "\u2581\u043c\u0456",
    "4812": "iti",
    "4813": "\u2581Ke",
    "4814": "enu",
    "4815": "\u2581Park",
    "4816": "\u0442\u043e\u043c",
    "4817": "\u2581auth",
    "4818": "\u2581center",
    "4819": "Ph",
    "4820": "\u0442\u043e\u0432",
    "4821": "iding",
    "4822": "\u2581across",
    "4823": "\u2581song",
    "4824": "\u2581phys",
    "4825": "\u2581numer",
    "4826": "\u0449\u0430",
    "4827": "\u2581Alex",
    "4828": "\u2581problems",
    "4829": "\u2581Error",
    "4830": "format",
    "4831": "\u2581Acc",
    "4832": "\u2581six",
    "4833": "\u2581db",
    "4834": "\u2581Cast",
    "4835": "oms",
    "4836": "project",
    "4837": "\u2581vert",
    "4838": "cret",
    "4839": "\u2581header",
    "4840": "\u2581stream",
    "4841": "ids",
    "4842": "\u2581tor",
    "4843": "\u2581sept",
    "4844": "\u2581estim",
    "4845": "\u2581decl",
    "4846": "\u2581gave",
    "4847": "\u2581player",
    "4848": "ysis",
    "4849": "\u2581\u0434\u0440\u0443",
    "4850": "amm",
    "4851": "\u0449\u043e",
    "4852": "\u2581(\"",
    "4853": "\u2581ax",
    "4854": "Property",
    "4855": "usr",
    "4856": "\u2581someone",
    "4857": "\u2581impro",
    "4858": "aden",
    "4859": "rote",
    "4860": "\u2581\u041c\u0438",
    "4861": "ih",
    "4862": "++)",
    "4863": "\u2581video",
    "4864": "\u2581exists",
    "4865": "\u043a\u043b\u0430",
    "4866": "\u2581complete",
    "4867": "\u2581session",
    "4868": "\u2581constant",
    "4869": "icos",
    "4870": "\u2581pack",
    "4871": "rome",
    "4872": "egr",
    "4873": "Application",
    "4874": "\u2581yes",
    "4875": "\u2581elle",
    "4876": "\u2581email",
    "4877": "orf",
    "4878": "case",
    "4879": "\u2581pointer",
    "4880": "\u2581regard",
    "4881": "sen",
    "4882": "status",
    "4883": "\u2581mes",
    "4884": "\u2581delle",
    "4885": "ington",
    "4886": "\u2581Bas",
    "4887": ")^",
    "4888": "develop",
    "4889": "\u2581force",
    "4890": "\u2581characters",
    "4891": "\u2581cross",
    "4892": "\u2581death",
    "4893": "\u2581takes",
    "4894": "\u00e9ri",
    "4895": "igne",
    "4896": "\u0447\u0435\u043d",
    "4897": "UP",
    "4898": ".:",
    "4899": "Thread",
    "4900": "ju",
    "4901": "iny",
    "4902": "\u2581details",
    "4903": "\u2581xml",
    "4904": "tait",
    "4905": "output",
    "4906": "message",
    "4907": "''",
    "4908": "\u2581British",
    "4909": "ville",
    "4910": "\u2581Div",
    "4911": "\u2581User",
    "4912": "cm",
    "4913": "\u0447\u043d\u043e",
    "4914": "column",
    "4915": "eqref",
    "4916": "\u00f3r",
    "4917": "onom",
    "4918": "\u2581Post",
    "4919": "ellen",
    "4920": "Ab",
    "4921": "ult\u00e9",
    "4922": "\u2581perfect",
    "4923": "(){",
    "4924": "vision",
    "4925": "active",
    "4926": "lier",
    "4927": "rij",
    "4928": "sd",
    "4929": "\u2581k\u00f6",
    "4930": "\u2581nie",
    "4931": "\u2581relig",
    "4932": "\u2581ot",
    "4933": "\u2581machine",
    "4934": "\u2581held",
    "4935": ")$.",
    "4936": "========",
    "4937": "cker",
    "4938": "\u0432\u044b",
    "4939": "born",
    "4940": "\u2581past",
    "4941": "\u0440\u0438\u044f",
    "4942": "\u2581Dr",
    "4943": "\u2581regular",
    "4944": "\u2581provided",
    "4945": "TER",
    "4946": "\u2581univers",
    "4947": "\u2581gets",
    "4948": "\u2581nu",
    "4949": "\u2581/*",
    "4950": "ober",
    "4951": "fin",
    "4952": "\u2581nella",
    "4953": "\u2581become",
    "4954": "\u2581``",
    "4955": "\u2581history",
    "4956": "\u2581Sol",
    "4957": "\u2581Rad",
    "4958": "\u2581terms",
    "4959": "\u2581events",
    "4960": "lymp",
    "4961": ")))",
    "4962": "\u0440\u043e\u0432\u0430",
    "4963": "\u2581absol",
    "4964": "\u2581soft",
    "4965": "links",
    "4966": "\u2581hope",
    "4967": "\u2581subject",
    "4968": "\"),",
    "4969": "\u2581creating",
    "4970": "\u2581}\r",
    "4971": "\u2581Sk",
    "4972": "\u2581flow",
    "4973": "\u2581\u0420\u0430",
    "4974": "\u2581assert",
    "4975": "zet",
    "4976": "\u2581Frank",
    "4977": "sa",
    "4978": "\u2581distribution",
    "4979": "cu",
    "4980": "band",
    "4981": "izz",
    "4982": "\u2581job",
    "4983": "iner",
    "4984": "struct",
    "4985": "\u00e1k",
    "4986": "TO",
    "4987": "auf",
    "4988": "\u2581extends",
    "4989": "\u2581Gra",
    "4990": "display",
    "4991": "\u2581signific",
    "4992": "oney",
    "4993": "source",
    "4994": "microsoft",
    "4995": "inder",
    "4996": "\u2581quick",
    "4997": "\u2581wonder",
    "4998": "Instance",
    "4999": "elles",
    "5000": "\u00e8me",
    "5001": "\u2581company",
    "5002": "u\u00df",
    "5003": ".}",
    "5004": "\u2581separate",
    "5005": "UM",
    "5006": "HERE",
    "5007": "\u2581writing",
    "5008": "itution",
    "5009": "\u2581Gesch",
    "5010": "\u043c\u044f",
    "5011": "\u2581James",
    "5012": "\u2581DE",
    "5013": "\u2581Spe",
    "5014": "process",
    "5015": "Str",
    "5016": "\u2581sym",
    "5017": "\u2581ao",
    "5018": "\u2581wy",
    "5019": "\u2581anyone",
    "5020": "\u2581Up",
    "5021": "useum",
    "5022": "aron",
    "5023": "\u2581definition",
    "5024": "\u2581`$",
    "5025": "\u2581fav",
    "5026": "ributes",
    "5027": "\u2581R\u00e9",
    "5028": "ografia",
    "5029": "element",
    "5030": "cap",
    "5031": "pat",
    "5032": "\u2581Bra",
    "5033": ")(",
    "5034": "\u2581according",
    "5035": "\u0433\u0435",
    "5036": "\u2581pie",
    "5037": "eli",
    "5038": "}\"",
    "5039": "\u2581activ",
    "5040": "\u2581stop",
    "5041": "patch",
    "5042": "\u0442\u0456",
    "5043": "\u2581Jose",
    "5044": "End",
    "5045": "\u2581prze",
    "5046": "\u2581age",
    "5047": "itory",
    "5048": "\u2581PHP",
    "5049": "agement",
    "5050": "\u2581`.",
    "5051": "\u2581pretty",
    "5052": "\u2581recomm",
    "5053": "\u2581sud",
    "5054": "\u2581requ",
    "5055": "\u2581\u043e\u0431\u043b\u0430",
    "5056": "atives",
    "5057": "\u2581High",
    "5058": "\u00e1z",
    "5059": "oul",
    "5060": "rest",
    "5061": "\u2581Ter",
    "5062": "under",
    "5063": "thern",
    "5064": "center",
    "5065": "\u2581ur",
    "5066": "lat",
    "5067": "\u2581interface",
    "5068": "\u2581\u0438\u043d",
    "5069": "\u2581whose",
    "5070": "icas",
    "5071": "amen",
    "5072": "Filter",
    "5073": "\u2581station",
    "5074": "Page",
    "5075": "\u2581arm",
    "5076": "\u2581eyes",
    "5077": "\u2581\u0440\u0430\u0439",
    "5078": "\u2581seu",
    "5079": "oli",
    "5080": "win",
    "5081": "lik",
    "5082": "gex",
    "5083": "chan",
    "5084": "idence",
    "5085": "args",
    "5086": "aking",
    "5087": "\u2581Google",
    "5088": "\u2581Stud",
    "5089": "\u2581ho",
    "5090": "\u0442\u043e\u0440\u044b",
    "5091": "Su",
    "5092": "\u2581automat",
    "5093": "\u00eame",
    "5094": "\u2581cy",
    "5095": "lor",
    "5096": "\u2581stack",
    "5097": "\u2581SELECT",
    "5098": "AF",
    "5099": "\u2581>>",
    "5100": "\u2581compet",
    "5101": "\u2581pair",
    "5102": "\u2581ingl\u00e9s",
    "5103": "Response",
    "5104": "\u2581Fig",
    "5105": "grad",
    "5106": "\u2581documentation",
    "5107": "\u2581cant",
    "5108": "\u2581appreci",
    "5109": "\u00e5n",
    "5110": "\u2581learn",
    "5111": "\u2581indep",
    "5112": "\u2581pal",
    "5113": "package",
    "5114": "ares",
    "5115": "\u2581Berlin",
    "5116": "\u0431\u043b\u0438",
    "5117": "reich",
    "5118": "\u0451\u043d",
    "5119": "\u2581satisf",
    "5120": "\u2581region",
    "5121": "\u2581friend",
    "5122": "\u2581George",
    "5123": "\u2581\u0412\u043e",
    "5124": "\u2581\"\"",
    "5125": "\u2581desde",
    "5126": "Factory",
    "5127": "\u2581County",
    "5128": "ouv",
    "5129": "\u2581\u2018",
    "5130": "\u2581installed",
    "5131": "\u2581wanted",
    "5132": "\u2581Python",
    "5133": "\u2581interpre",
    "5134": "\u2581included",
    "5135": "\u2581((",
    "5136": "\u2581altern",
    "5137": "isto",
    "5138": "gn",
    "5139": "\u2581border",
    "5140": "pdf",
    "5141": "\u2581dup",
    "5142": "\u2581download",
    "5143": "just",
    "5144": "\u2581members",
    "5145": "child",
    "5146": "\u2581pay",
    "5147": "\u2581cer",
    "5148": "\u2581looked",
    "5149": "\u2581correctly",
    "5150": "auth",
    "5151": "\u2581\u0441\u0442\u0430\u043d",
    "5152": "\u2581esp",
    "5153": "\u2581desc",
    "5154": "eben",
    "5155": "\u2581questions",
    "5156": "mal",
    "5157": "\u2581abgerufen",
    "5158": "\u2581Band",
    "5159": "\u2581[]",
    "5160": "Base",
    "5161": "\u2581ris",
    "5162": "\u2581fort",
    "5163": "\u2581Id",
    "5164": "\u2581various",
    "5165": "\u2581League",
    "5166": "\u2581Hand",
    "5167": "\u2581Type",
    "5168": "irl",
    "5169": "\u2581Fe",
    "5170": "i\u00e9n",
    "5171": "itter",
    "5172": "\u2581fast",
    "5173": "sta",
    "5174": "\u2581except",
    "5175": "icz",
    "5176": "\u2581French",
    "5177": "\u2581environment",
    "5178": "\u2581conse",
    "5179": "\u0443\u0440",
    "5180": "\u043e\u0433\u043e",
    "5181": "\u2581necessary",
    "5182": "target",
    "5183": "\u2581reading",
    "5184": "home",
    "5185": "zeich",
    "5186": "\u2581equal",
    "5187": "\u2581pi\u00f9",
    "5188": "\u2581prem",
    "5189": "\u2581difficult",
    "5190": "\u2581unit",
    "5191": "\u2581replace",
    "5192": "\u2581heart",
    "5193": "\u2581talk",
    "5194": "AM",
    "5195": "\u2581RE",
    "5196": "\u2581Person",
    "5197": "endency",
    "5198": "\u2581imm",
    "5199": "\u2581human",
    "5200": "dn",
    "5201": "\u2581Kir",
    "5202": "\u2581Aut",
    "5203": "known",
    "5204": "\u2581frequ",
    "5205": "system",
    "5206": "\u043b\u0430\u0432",
    "5207": "\u2581Sz",
    "5208": "\u2581Gal",
    "5209": "\u043d\u043e\u0435",
    "5210": "selves",
    "5211": "rightarrow",
    "5212": "\u2581\u0421\u0430",
    "5213": "=\"@",
    "5214": "\u2581building",
    "5215": "import",
    "5216": "\u2581fam",
    "5217": "\u2581delete",
    "5218": "aire",
    "5219": "mary",
    "5220": "\u2581fund",
    "5221": "\u2581particip",
    "5222": "\u2581syn",
    "5223": "sin",
    "5224": "\u2581lower",
    "5225": "\u2581zero",
    "5226": "\u2581sec",
    "5227": "\u2581fra",
    "5228": "Point",
    "5229": "\u2581failed",
    "5230": "iento",
    "5231": "cup",
    "5232": "\u2581slow",
    "5233": "\u2581nation",
    "5234": "\u00e4hr",
    "5235": "\u2581info",
    "5236": "\u2581Public",
    "5237": "\u2581decla",
    "5238": "\u2581\u0422\u0430",
    "5239": "\u2581sold",
    "5240": "\u2581Rem",
    "5241": "\u2581Phil",
    "5242": "\u0441\u0442\u0440\u0430",
    "5243": "\u2581mehr",
    "5244": "\u2581Work",
    "5245": "\u2581Nord",
    "5246": "\u2581fait",
    "5247": "\u2581gew",
    "5248": "println",
    "5249": "obile",
    "5250": "\u2581Kon",
    "5251": "\u2581assume",
    "5252": "lands",
    "5253": "\u2581amount",
    "5254": "\u2581Press",
    "5255": "\u00fdch",
    "5256": "\u2581maxim",
    "5257": "\u2581Champion",
    "5258": "library",
    "5259": "a\u00f1",
    "5260": "\u2581Wal",
    "5261": "Comm",
    "5262": "]]",
    "5263": "\u2581zw",
    "5264": "\u2581social",
    "5265": "LI",
    "5266": "\u2581Unter",
    "5267": "vor",
    "5268": "Delta",
    "5269": "email",
    "5270": "raint",
    "5271": "oni",
    "5272": "\u2581alt",
    "5273": "\u2581n\u00e9",
    "5274": "\u0446\u0438\u044f",
    "5275": "ography",
    "5276": "\u2581mentioned",
    "5277": "\u2581<=",
    "5278": "\u2581cette",
    "5279": "\u2581currently",
    "5280": "vare",
    "5281": "izing",
    "5282": "\u2581Def",
    "5283": "icol",
    "5284": "\u00fcnd",
    "5285": "\u2581configuration",
    "5286": "estig",
    "5287": "III",
    "5288": "lam",
    "5289": "i\u00e8re",
    "5290": "\u2581Ear",
    "5291": "\u2581tu",
    "5292": "Ent",
    "5293": "\u2581Using",
    "5294": "\u2581\u043a\u043e\u043c",
    "5295": "cie",
    "5296": "\u2581proof",
    "5297": "\u2581invol",
    "5298": "\u2581History",
    "5299": "><",
    "5300": "\u2581AND",
    "5301": "avy",
    "5302": "\u2581relations",
    "5303": "${",
    "5304": "\u2581comes",
    "5305": "\u2581direction",
    "5306": "\u2581June",
    "5307": "\u2581Way",
    "5308": "Component",
    "5309": "ech",
    "5310": "\u2581Peter",
    "5311": "sg",
    "5312": "\u2581stra",
    "5313": "uct",
    "5314": "\u2581implementation",
    "5315": "attle",
    "5316": "\u2581cz",
    "5317": "plot",
    "5318": "\u2581played",
    "5319": "\"></",
    "5320": "\u2581five",
    "5321": "\u2581coll",
    "5322": "\u2581Charles",
    "5323": "Tra",
    "5324": "\u2581suo",
    "5325": "files",
    "5326": "entes",
    "5327": "response",
    "5328": "How",
    "5329": "\u2581Soci",
    "5330": "\u2581ign",
    "5331": "\u2581led",
    "5332": "\u2581German",
    "5333": "udo",
    "5334": "\u2581Du",
    "5335": "\u2581tim",
    "5336": "ounter",
    "5337": "\u2581attack",
    "5338": "uri",
    "5339": "\u2581\u0430\u0440",
    "5340": "esse",
    "5341": "ivil",
    "5342": "\u2581Ju",
    "5343": "\u2581vel",
    "5344": "matrix",
    "5345": "\u2581Mat",
    "5346": "gio",
    "5347": "\u2581Zeit",
    "5348": "VER",
    "5349": "has",
    "5350": "Connection",
    "5351": "\u2581ihr",
    "5352": "\u2581attribute",
    "5353": "\u2581discuss",
    "5354": "\u2581domain",
    "5355": "bind",
    "5356": "\u2581Sec",
    "5357": "rik",
    "5358": "close",
    "5359": "gin",
    "5360": "\u2581love",
    "5361": "anto",
    "5362": "gent",
    "5363": "aba",
    "5364": "jango",
    "5365": "bi",
    "5366": "\u2581obser",
    "5367": "itting",
    "5368": "\u2581\u0440\u0443",
    "5369": "}=",
    "5370": "agen",
    "5371": "BC",
    "5372": "some",
    "5373": "\u2581Bu",
    "5374": "\u2581soci",
    "5375": "\u2581individual",
    "5376": "\u2581deal",
    "5377": "\u2581outside",
    "5378": "rio",
    "5379": "Exec",
    "5380": "andid",
    "5381": "\u2581business",
    "5382": "\u2581tempor",
    "5383": "\u2581Tur",
    "5384": "\u2581(!",
    "5385": "riter",
    "5386": "\u2581google",
    "5387": "]:",
    "5388": "itte",
    "5389": "xi",
    "5390": "\u2581\u041f\u0430",
    "5391": "hol",
    "5392": "\u043d\u044c",
    "5393": "ring",
    "5394": "\u2581sul",
    "5395": "\u043d\u043e\u0441\u0442\u0438",
    "5396": "_.",
    "5397": "gar",
    "5398": "Task",
    "5399": "\u2581Check",
    "5400": "\u2581modern",
    "5401": "\u2581win",
    "5402": "uster",
    "5403": "han",
    "5404": "formation",
    "5405": "void",
    "5406": "\u2581\u0444\u0438",
    "5407": "\u2581useful",
    "5408": "\u2581England",
    "5409": "los",
    "5410": "etime",
    "5411": "eur",
    "5412": "\u2581unique",
    "5413": "\u2581\u043a\u0430\u043a",
    "5414": "ying",
    "5415": "obj",
    "5416": "uid",
    "5417": "\u2581windows",
    "5418": "\u2581distance",
    "5419": "\u2581nombre",
    "5420": "\u0456\u044f",
    "5421": "ocus",
    "5422": "ahn",
    "5423": "ierte",
    "5424": "\u2581dar",
    "5425": "SI",
    "5426": "long",
    "5427": "asta",
    "5428": "iven",
    "5429": "\u2581told",
    "5430": "\u2581Gru",
    "5431": "foo",
    "5432": "\u2581calling",
    "5433": "iembre",
    "5434": "\u2581future",
    "5435": "pr\u00e8s",
    "5436": "leep",
    "5437": "avigation",
    "5438": "POST",
    "5439": "\u2581described",
    "5440": "\u2581noch",
    "5441": "unit",
    "5442": "allen",
    "5443": "\u2581branch",
    "5444": "fa",
    "5445": "\u2581fill",
    "5446": "\u2581obj",
    "5447": "\u2581tree",
    "5448": "\u2581wurden",
    "5449": "\u2581Liter",
    "5450": "rot",
    "5451": "split",
    "5452": "emein",
    "5453": "module",
    "5454": "CA",
    "5455": "\u2581operator",
    "5456": "\u2581wrote",
    "5457": "\u2581Jack",
    "5458": "ologie",
    "5459": "\u2581Ant",
    "5460": "\u0442\u0435\u0440",
    "5461": "stream",
    "5462": "\u2581Que",
    "5463": "epsilon",
    "5464": "non",
    "5465": "stein",
    "5466": "\u2581simpl",
    "5467": "pub",
    "5468": "\u2581July",
    "5469": "\u2581nature",
    "5470": "\u2581Database",
    "5471": "\u00f3l",
    "5472": "\u043d\u0438\u043c",
    "5473": "\u2581VI",
    "5474": "\u00eatre",
    "5475": "iles",
    "5476": "\u2581wel",
    "5477": "'),",
    "5478": "\u2581mut",
    "5479": "location",
    "5480": "\u2581therefore",
    "5481": "elli",
    "5482": "\u2581\u0406",
    "5483": "n\u00e9",
    "5484": "\u2581\u0430\u0432",
    "5485": "ledge",
    "5486": "\u2581conver",
    "5487": "\u00edm",
    "5488": "\u2581XV",
    "5489": "vider",
    "5490": "\u2581January",
    "5491": "\u2581usually",
    "5492": "\u2581released",
    "5493": "\u2581Mi",
    "5494": "Head",
    "5495": "iller",
    "5496": "\u2581jan",
    "5497": "\u2581letter",
    "5498": "produ",
    "5499": "rd",
    "5500": "\u2581Cam",
    "5501": ",'",
    "5502": "\u2581\u0426",
    "5503": "\u2581push",
    "5504": "update",
    "5505": "\u2581maybe",
    "5506": "Http",
    "5507": "@\"",
    "5508": "\u043c\u0435\u0440",
    "5509": "service",
    "5510": "parse",
    "5511": "\u2581dass",
    "5512": "\u00ean",
    "5513": ")\"",
    "5514": "more",
    "5515": "/*",
    "5516": "\u2581mas",
    "5517": "\u2581likely",
    "5518": "\u2581material",
    "5519": "\u2581[[",
    "5520": "\u2581longer",
    "5521": "bal",
    "5522": "\u2581Archiv",
    "5523": "igt",
    "5524": "\u2581egy",
    "5525": "idge",
    "5526": "igu",
    "5527": "conf",
    "5528": "\u2581inc",
    "5529": "consult\u00e9",
    "5530": "\u2581mai",
    "5531": "Work",
    "5532": "\u2581\u0433\u0440\u0430",
    "5533": "\u2581October",
    "5534": "\u2581global",
    "5535": "\u2581sel",
    "5536": "\u2581municip",
    "5537": "\u2581viol",
    "5538": "\u2581Does",
    "5539": "\u2581\\[",
    "5540": "\u0441\u043a\u043e\u043c",
    "5541": "\u2581compos",
    "5542": "\u0431\u0440\u044f",
    "5543": "\u0432\u044f",
    "5544": "\u2581respons",
    "5545": "\u2581considered",
    "5546": "\u2581Japan",
    "5547": "pes",
    "5548": "osto",
    "5549": "\u2581milit",
    "5550": "SP",
    "5551": "\u0441\u044b",
    "5552": "attr",
    "5553": "cil",
    "5554": "irectory",
    "5555": "aving",
    "5556": "\u2581Del",
    "5557": "\u2581prevent",
    "5558": "idade",
    "5559": "git",
    "5560": "iform",
    "5561": "outer",
    "5562": "inct",
    "5563": "level",
    "5564": "atever",
    "5565": "\u2581repe",
    "5566": "\u2581exc",
    "5567": "\u0434\u0430\u0440",
    "5568": "Style",
    "5569": "\u2581Thomas",
    "5570": "eline",
    "5571": "\u2581\u0436",
    "5572": "untime",
    "5573": "\u2581larg",
    "5574": "True",
    "5575": ".*",
    "5576": "creen",
    "5577": "yles",
    "5578": "\u2581transl",
    "5579": "\u2581\u0421\u043e",
    "5580": "ensions",
    "5581": "\u00e4l",
    "5582": "isse",
    "5583": "\u2581volt",
    "5584": "cially",
    "5585": "nik",
    "5586": ".]",
    "5587": "\u2581Stadt",
    "5588": "\u043c\u044b",
    "5589": "fill",
    "5590": "lov",
    "5591": "\u2581\"/",
    "5592": "Sp",
    "5593": "\u2581Air",
    "5594": "Call",
    "5595": "\u2581nur",
    "5596": "Check",
    "5597": "ience",
    "5598": "efined",
    "5599": "\u2581\u0432\u0440\u0435",
    "5600": "\u0142o",
    "5601": "dz",
    "5602": "\u2581\u043e\u0440",
    "5603": "iker",
    "5604": "owa",
    "5605": "\u043e\u0432\u0438\u0447",
    "5606": "r\u00e9",
    "5607": "OL",
    "5608": "\u2581linear",
    "5609": "\u2581export",
    "5610": "ahr",
    "5611": "icial",
    "5612": "Rep",
    "5613": "\u2581natural",
    "5614": "\u2581cop",
    "5615": "\u2581})",
    "5616": "\u00e7\u00f5es",
    "5617": "zz",
    "5618": "What",
    "5619": "\u2581House",
    "5620": "Ref",
    "5621": "inger",
    "5622": "\u2581taking",
    "5623": "n\u011b",
    "5624": "\u2581Einz",
    "5625": "\u2581dam",
    "5626": "\u2581issues",
    "5627": "Builder",
    "5628": "edit",
    "5629": "\u2581prz",
    "5630": "password",
    "5631": "Gener",
    "5632": "rim",
    "5633": "\u2581parts",
    "5634": "---",
    "5635": "iginal",
    "5636": "\u2581Sci",
    "5637": "\u2581mother",
    "5638": "rea",
    "5639": "\u2581container",
    "5640": "\u0434\u044f",
    "5641": "\u2581IP",
    "5642": "\u2581none",
    "5643": "\u2581followed",
    "5644": "\u2581ple",
    "5645": "\u2581measure",
    "5646": "\u2581tout",
    "5647": "Ext",
    "5648": "\u2581TV",
    "5649": "\u2581explain",
    "5650": "\u2581paper",
    "5651": "\u0441\u0442\u0456",
    "5652": "ws",
    "5653": "Wik",
    "5654": "\u2581mm",
    "5655": "\u2581Norm",
    "5656": "\u2581Server",
    "5657": "font",
    "5658": "ecause",
    "5659": "TR",
    "5660": "\u2581\u0431\u0438",
    "5661": "La",
    "5662": "\u2581ens",
    "5663": "\u2581retr",
    "5664": "\u2581Sil",
    "5665": "\u2581sequence",
    "5666": "arc",
    "5667": "IV",
    "5668": "z\u00e1",
    "5669": "\u2581Android",
    "5670": "\u2581Super",
    "5671": "\u2581roz",
    "5672": "ovie",
    "5673": "Om",
    "5674": "\u2581Well",
    "5675": "make",
    "5676": "orph",
    "5677": "\u2581Jer",
    "5678": "\u2581Ros",
    "5679": "reference",
    "5680": "\u2581features",
    "5681": "\u2581Ger",
    "5682": "\u2581Leg",
    "5683": "\u2581late",
    "5684": "\u2581additional",
    "5685": "\u2581flo",
    "5686": "\u2581\u0435\u0433\u043e",
    "5687": "\u2581algorithm",
    "5688": "BA",
    "5689": "kar",
    "5690": "IP",
    "5691": "]);",
    "5692": "\u2581appears",
    "5693": "yw",
    "5694": "\u2581temp",
    "5695": "\u2581aussi",
    "5696": "method",
    "5697": "\u2581pet",
    "5698": "strap",
    "5699": "arning",
    "5700": "\u2581cut",
    "5701": "\u2581Sa",
    "5702": "\u2581track",
    "5703": "\u2581employ",
    "5704": "\u2581inde",
    "5705": "rav",
    "5706": "\u2581generate",
    "5707": "bes",
    "5708": "arts",
    "5709": "Status",
    "5710": "uge",
    "5711": "alis",
    "5712": "\u2581override",
    "5713": "\u2581fi",
    "5714": "\u2581lost",
    "5715": "oted",
    "5716": "\u2581room",
    "5717": "\u2581calls",
    "5718": "\u2581consist",
    "5719": "\u0440\u0435\u043d",
    "5720": "\u2581village",
    "5721": "dist",
    "5722": "\u2581techn",
    "5723": "enza",
    "5724": "\u2581\u0440\u043e\u0437",
    "5725": "\u2581Catalog",
    "5726": "\u2581becom",
    "5727": "rows",
    "5728": "\u2581Nel",
    "5729": "comple",
    "5730": "\u2581premi",
    "5731": "\u2581rot",
    "5732": "\u2581Weblinks",
    "5733": "\u2581football",
    "5734": "\u2581compar",
    "5735": "\u2581live",
    "5736": "\u043a\u0438\u0445",
    "5737": "\u2581equival",
    "5738": "cape",
    "5739": "\u2581Gen",
    "5740": "nder",
    "5741": "\u2581Vis",
    "5742": "\u2581behind",
    "5743": "gers",
    "5744": "voke",
    "5745": "\u2581media",
    "5746": "EX",
    "5747": "that",
    "5748": "\u2581sono",
    "5749": "\u2581mysql",
    "5750": "ev",
    "5751": "\u2581rule",
    "5752": "\u0434\u043e\u0432",
    "5753": "acc",
    "5754": "\u2581WHERE",
    "5755": "\u0435\u043d\u0435",
    "5756": "Grid",
    "5757": "\u2581jul",
    "5758": "\u2581mort",
    "5759": "\u2581generated",
    "5760": "encia",
    "5761": "acter",
    "5762": "clud",
    "5763": "\u2581scen",
    "5764": "\u2581closed",
    "5765": "\u2581Michael",
    "5766": "\u2581mount",
    "5767": ")$,",
    "5768": "\u2581drop",
    "5769": "\u2581combin",
    "5770": "tocol",
    "5771": "\u2581goes",
    "5772": "\u2581geb",
    "5773": "MD",
    "5774": "\u2581Anton",
    "5775": "\u2581$(\"",
    "5776": "Tem",
    "5777": "\u2581ca",
    "5778": "\u2581instru",
    "5779": "eds",
    "5780": "\u2581tool",
    "5781": "mys",
    "5782": "\u2581route",
    "5783": "\"))",
    "5784": "\u043f\u0440\u0435",
    "5785": "\u2581float",
    "5786": "\u2581services",
    "5787": "\u2581\u0447\u0438",
    "5788": "\u043a\u0456",
    "5789": "embly",
    "5790": "aker",
    "5791": "\u2581Son",
    "5792": "\u2581Math",
    "5793": "asse",
    "5794": "ously",
    "5795": "lications",
    "5796": "\u2581ru",
    "5797": "\u2581\u0449\u043e",
    "5798": "\u2581Const",
    "5799": "\u2581immedi",
    "5800": "FO",
    "5801": "oro",
    "5802": "\u2581production",
    "5803": "rei",
    "5804": "\u2581jquery",
    "5805": "annt",
    "5806": "\u2581While",
    "5807": "\u2581sn",
    "5808": "\u2581\u0433\u043e\u0434\u0438",
    "5809": "Format",
    "5810": "\u2581star",
    "5811": "\u2581Sen",
    "5812": "\u2581ko",
    "5813": "NAME",
    "5814": "\u2581pr\u00e9s",
    "5815": "cha",
    "5816": "what",
    "5817": "omin",
    "5818": "endant",
    "5819": "hy",
    "5820": "\u2581observ",
    "5821": "\u2581prefer",
    "5822": "\u0443\u043d",
    "5823": "\u2581constructor",
    "5824": "bs",
    "5825": "\u2581mac",
    "5826": "\u2581Bre",
    "5827": "\u2581Instit",
    "5828": "\u2581story",
    "5829": "\u2581symbol",
    "5830": "eles",
    "5831": "\u00dfe",
    "5832": "asing",
    "5833": "\u2581west",
    "5834": "ians",
    "5835": "\u2581master",
    "5836": "\u0435\u0437",
    "5837": "\u2581ways",
    "5838": "bm",
    "5839": "\u2581pick",
    "5840": "\u2581depart",
    "5841": "Back",
    "5842": "enk",
    "5843": "lipse",
    "5844": "\u2581math",
    "5845": "\u2581Francis",
    "5846": "\u2581December",
    "5847": "fs",
    "5848": "rum",
    "5849": "\u2581development",
    "5850": "LT",
    "5851": "ernel",
    "5852": "\u2581True",
    "5853": "\u2581More",
    "5854": "rangle",
    "5855": "\u2581conditions",
    "5856": "Options",
    "5857": "\u2581gli",
    "5858": "\u2581operation",
    "5859": "\u00e9k",
    "5860": "acht",
    "5861": "ights",
    "5862": "\u2581mist",
    "5863": "anda",
    "5864": "\u2581energy",
    "5865": "\u2581\u0436\u0435",
    "5866": "\u2581women",
    "5867": "akt",
    "5868": "\u2581CH",
    "5869": "gebra",
    "5870": "\u2581meet",
    "5871": "iu",
    "5872": "well",
    "5873": "\u00f6l",
    "5874": "\u2581government",
    "5875": "\u2581Jos",
    "5876": "ieg",
    "5877": "\u2581syntax",
    "5878": "fix",
    "5879": "\u2581Pet",
    "5880": "jquery",
    "5881": "\u2581card",
    "5882": "\u2581principal",
    "5883": "\u2581dru",
    "5884": "\u2581territ",
    "5885": "\u2581\u043f\u043e\u0432",
    "5886": "\u2581SS",
    "5887": "\u0440\u0438\u0438",
    "5888": "tres",
    "5889": "agne",
    "5890": "lying",
    "5891": "tilde",
    "5892": "bern",
    "5893": "enter",
    "5894": "Per",
    "5895": "\u2581somet",
    "5896": "Load",
    "5897": "lice",
    "5898": "\u2581sous",
    "5899": "\u2581Louis",
    "5900": "\u2581logic",
    "5901": "\u2581Other",
    "5902": "\u2581cir",
    "5903": "\u00e9v",
    "5904": "chron",
    "5905": "\u2581han",
    "5906": "\u2581margin",
    "5907": "Window",
    "5908": "\u00e8res",
    "5909": "nych",
    "5910": "push",
    "5911": "bolds",
    "5912": "\u2581layout",
    "5913": "\u2581[`",
    "5914": "Char",
    "5915": "\u2581Cap",
    "5916": "boldsymbol",
    "5917": "\u2581Roman",
    "5918": "\u2581Max",
    "5919": ":(",
    "5920": "\u2581Code",
    "5921": "ising",
    "5922": "\u2581states",
    "5923": "\u2581existing",
    "5924": "support",
    "5925": "\u2581research",
    "5926": "licate",
    "5927": "vari",
    "5928": "\u2581bij",
    "5929": "\u2581appe",
    "5930": "\u2581happens",
    "5931": "\\\"",
    "5932": "\u2581concern",
    "5933": "west",
    "5934": "\u2581saying",
    "5935": "pid",
    "5936": "\u2581recogn",
    "5937": "\u2581Het",
    "5938": "Child",
    "5939": "\u2581cs",
    "5940": "\\,",
    "5941": "\u2581clean",
    "5942": "lections",
    "5943": "access",
    "5944": "\u0432\u0443",
    "5945": "\u043f\u0440\u043e",
    "5946": "acity",
    "5947": "\u2581Off",
    "5948": "\u2581easily",
    "5949": "\u00e8que",
    "5950": "\u2581jako",
    "5951": "\u2581iz",
    "5952": "\u2581Ha",
    "5953": "\u2581Det",
    "5954": "\u2581forma",
    "5955": "sche",
    "5956": "swers",
    "5957": "\u2581offer",
    "5958": "quired",
    "5959": "Users",
    "5960": "\u2581subst",
    "5961": ">(",
    "5962": "\u2581ground",
    "5963": "unn",
    "5964": "rod",
    "5965": "spe",
    "5966": "ursor",
    "5967": "\u2581leave",
    "5968": "erk",
    "5969": "\u2581tal",
    "5970": "\u2581bottom",
    "5971": "IO",
    "5972": "\u2581popular",
    "5973": "igo",
    "5974": "\u2581Time",
    "5975": "values",
    "5976": "\u2581Loc",
    "5977": "\u2581Club",
    "5978": "\u2581anche",
    "5979": "ia\u0142",
    "5980": "\u0456\u0457",
    "5981": "Omega",
    "5982": "\u2581located",
    "5983": "Url",
    "5984": "\u2581Esp",
    "5985": "\u043b\u044b",
    "5986": "\u0446\u044c",
    "5987": "ulate",
    "5988": "\u2581join",
    "5989": "aves",
    "5990": "vet",
    "5991": "lio",
    "5992": "remove",
    "5993": "\u2581token",
    "5994": "\u2581optim",
    "5995": "\u2581claim",
    "5996": "ological",
    "5997": "\u2581css",
    "5998": "\u2581although",
    "5999": "\u2581priv",
    "6000": "\u2581Ba",
    "6001": "\u00fcl",
    "6002": "entication",
    "6003": "\u2581ven",
    "6004": "Server",
    "6005": "\u2581Cong",
    "6006": "NET",
    "6007": "CON",
    "6008": "dt",
    "6009": "perties",
    "6010": "\u2581epis",
    "6011": "wikipedia",
    "6012": "\u2581engine",
    "6013": "\u2581fer",
    "6014": "getElement",
    "6015": "\u2581Cla",
    "6016": "\u0159\u00ed",
    "6017": "\u2581rom",
    "6018": "varepsilon",
    "6019": "\u2581prime",
    "6020": "istry",
    "6021": "pected",
    "6022": "orage",
    "6023": "\u2581touch",
    "6024": "\u2581['",
    "6025": "\u2581dan",
    "6026": "Em",
    "6027": "aciones",
    "6028": "Can",
    "6029": "\u2581whom",
    "6030": "\u2581behavior",
    "6031": "\u2581strings",
    "6032": "\u2581Europ",
    "6033": "\u2581Rom",
    "6034": "circ",
    "6035": "\u2581pun",
    "6036": "\u2581register",
    "6037": "buntu",
    "6038": "rain",
    "6039": "Ob",
    "6040": "TA",
    "6041": "\u2581sometimes",
    "6042": "\u2581ment",
    "6043": "\u2581integer",
    "6044": "\u2581Jac",
    "6045": "legate",
    "6046": "othing",
    "6047": "\u2581sound",
    "6048": "laces",
    "6049": "\u2581\u0411\u0430",
    "6050": "rb",
    "6051": "di",
    "6052": "\u043b\u0435\u043d\u0438\u044f",
    "6053": "\u2581themselves",
    "6054": "\u2581Black",
    "6055": "\u2581settings",
    "6056": "\u2581norm",
    "6057": "\u2581runs",
    "6058": "\u2581NOT",
    "6059": "KE",
    "6060": "\u2581perhaps",
    "6061": "\u2581\u042f",
    "6062": "\u2581mol",
    "6063": "\u2581ans",
    "6064": "atre",
    "6065": "\u2581Dies",
    "6066": "Token",
    "6067": "anie",
    "6068": "\u2581allowed",
    "6069": "Range",
    "6070": "\u2581Gro",
    "6071": "via",
    "6072": "utorial",
    "6073": "ensor",
    "6074": "estival",
    "6075": ");\r",
    "6076": "\u043a\u0440\u0430\u0457",
    "6077": "\u2581turned",
    "6078": "scope",
    "6079": "\u2581bien",
    "6080": "=$",
    "6081": "\u2581extension",
    "6082": "atore",
    "6083": "\u2581\u0420\u043e",
    "6084": "\u2581specify",
    "6085": "edu",
    "6086": "Datos",
    "6087": "\u2581stored",
    "6088": "\u2581parse",
    "6089": "\u2581answers",
    "6090": "ills",
    "6091": "\u2581heard",
    "6092": "lu",
    "6093": "\u2581THE",
    "6094": "\u2581g\u00e9n",
    "6095": "\u2581ful",
    "6096": "ez",
    "6097": "\u2581Prem",
    "6098": "then",
    "6099": "dp",
    "6100": "\u0441\u044c\u043a\u043e\u0433\u043e",
    "6101": "\u2581Si",
    "6102": "\u00e7o",
    "6103": "Edit",
    "6104": "\u043a\u0456\u0432",
    "6105": "\u2581\u041b\u0438",
    "6106": "\u2581Sing",
    "6107": "\u2581categ",
    "6108": "Equ",
    "6109": "\u2581guer",
    "6110": "Width",
    "6111": "\u2581Christian",
    "6112": "stat",
    "6113": "Write",
    "6114": "\u2581woman",
    "6115": "wood",
    "6116": "Vis",
    "6117": "\u0440\u0430\u0437",
    "6118": "\u2581$$\\",
    "6119": "oder",
    "6120": "\u2581bool",
    "6121": "\u2581international",
    "6122": "\u043d\u043e\u0441\u0442\u044c",
    "6123": "\u2581Richard",
    "6124": "\u2581addition",
    "6125": "\u2581Music",
    "6126": "\u2581aber",
    "6127": "t\u00f3",
    "6128": "\u2581hier",
    "6129": "ugh",
    "6130": "\u2581pob",
    "6131": "\u2581tables",
    "6132": "Do",
    "6133": "\u2581higher",
    "6134": "psi",
    "6135": "r\u00e1",
    "6136": "\u2581active",
    "6137": "\u2581Table",
    "6138": "\u045a\u0435",
    "6139": "\u2581description",
    "6140": "\u2581seemed",
    "6141": "\u00edst",
    "6142": "\u2581myself",
    "6143": "\u2581menu",
    "6144": "del",
    "6145": "\u2581\u017e",
    "6146": "ele",
    "6147": "Aut",
    "6148": "\u2581\u0433\u0440\u0443",
    "6149": "mut",
    "6150": "oon",
    "6151": "asc",
    "6152": "bug",
    "6153": "\u2581moved",
    "6154": "CL",
    "6155": "\u2581datas",
    "6156": "SO",
    "6157": "\u043e\u043b\u043e",
    "6158": "\u2581Georg",
    "6159": "\u2581reach",
    "6160": ":\"",
    "6161": "\u2581evalu",
    "6162": "\u2581Hel",
    "6163": "\u2581River",
    "6164": "\u2581\u0410\u0440",
    "6165": "////",
    "6166": "\u2581sets",
    "6167": "\u2581Olymp",
    "6168": "Adapter",
    "6169": ".'",
    "6170": "overn",
    "6171": "\u2581Lord",
    "6172": "!--",
    "6173": "jpg",
    "6174": "imento",
    "6175": "\u2581Prof",
    "6176": "\u2581achieve",
    "6177": "}:",
    "6178": "\u2581incor",
    "6179": "\u2581onder",
    "6180": "engl",
    "6181": "ABLE",
    "6182": "\u2581Mary",
    "6183": "\u2581waren",
    "6184": "lage",
    "6185": "Dec",
    "6186": "\u0430\u043d\u0433\u043b",
    "6187": "encias",
    "6188": "\u043b\u0435\u0439",
    "6189": "\u2581Machine",
    "6190": "\u2581\u0410\u043d",
    "6191": "uda",
    "6192": "\u2581\u015b",
    "6193": "\u2581XX",
    "6194": "only",
    "6195": "\u043b\u0435\u043d\u0438\u0435",
    "6196": "\u2581tambi\u00e9n",
    "6197": "nej",
    "6198": "\u2581relative",
    "6199": "\u2581hours",
    "6200": "\u2581indeed",
    "6201": "undo",
    "6202": "ingu",
    "6203": "area",
    "6204": "\u2581Create",
    "6205": "beit",
    "6206": "\u2581removed",
    "6207": "master",
    "6208": "haus",
    "6209": "\u2581Bern",
    "6210": "\u2581speed",
    "6211": "\u2581Bay",
    "6212": "\u2581Att",
    "6213": "\u2581None",
    "6214": "application",
    "6215": "\u00fcd",
    "6216": "\u2581fit",
    "6217": "\u2581Maria",
    "6218": "\u2581nord",
    "6219": "\u2581split",
    "6220": "\u2581stru",
    "6221": "\u2581official",
    "6222": "\u2581execute",
    "6223": "ouve",
    "6224": "{{",
    "6225": "\u2581Ap",
    "6226": "\u2581\u043a\u0443",
    "6227": "IL",
    "6228": "\u2581^",
    "6229": "dim",
    "6230": "\u2581setup",
    "6231": "\u0441\u043a",
    "6232": "\u2581share",
    "6233": "\u2581minutes",
    "6234": "gle",
    "6235": "oco",
    "6236": "stell",
    "6237": "\u2581Coun",
    "6238": "\u2581temper",
    "6239": "keit",
    "6240": "\u0441\u044c\u043a\u0438\u0439",
    "6241": "ao",
    "6242": "\u2581Long",
    "6243": "(&",
    "6244": "\u043a\u0430\u043d",
    "6245": "\u2581dens",
    "6246": "But",
    "6247": "XX",
    "6248": "DATE",
    "6249": "gan",
    "6250": ".).",
    "6251": "\u2581entry",
    "6252": "install",
    "6253": "\u2581\u0437\u043d\u0430",
    "6254": "\u2581Som",
    "6255": "Command",
    "6256": "\u00dfen",
    "6257": "\u2581starting",
    "6258": "\u2581sto",
    "6259": "IG",
    "6260": "\u2581minim",
    "6261": "\u2581explicit",
    "6262": "\u2581bytes",
    "6263": "\u2581party",
    "6264": "tober",
    "6265": "\u2581Grand",
    "6266": "\u2581Vor",
    "6267": "\u2581leur",
    "6268": "Document",
    "6269": "erc",
    "6270": "ensive",
    "6271": "CP",
    "6272": "env",
    "6273": "\u2581arguments",
    "6274": "\u2581Gran",
    "6275": "arily",
    "6276": "\u2581lin",
    "6277": "tn",
    "6278": "(-",
    "6279": "geq",
    "6280": "\u2581Famil",
    "6281": "\u2581\u0411\u043e",
    "6282": "\u2581tour",
    "6283": "\u2581nav",
    "6284": "\u2581properly",
    "6285": "\u2581Mrs",
    "6286": "\u2581Mel",
    "6287": "\u2581scale",
    "6288": "astic",
    "6289": "ds",
    "6290": "\u2581Sir",
    "6291": "\u2581Church",
    "6292": "}^{\\",
    "6293": "you",
    "6294": "/.",
    "6295": "So",
    "6296": "\u2581brought",
    "6297": "\u2581role",
    "6298": "\u2581Sur",
    "6299": "\u2581fond",
    "6300": "\u2581ges",
    "6301": "\u017ce",
    "6302": "eten",
    "6303": "\u2581\u00e9tait",
    "6304": "SER",
    "6305": "\u2581\u043a\u043e\u0442\u043e\u0440\u044b",
    "6306": "\u2581equation",
    "6307": "aspx",
    "6308": "\u2581Afr",
    "6309": "\u2581dit",
    "6310": "empty",
    "6311": "alement",
    "6312": "wrap",
    "6313": "\u2581Bet",
    "6314": "\u2581collect",
    "6315": "\u2581git",
    "6316": "\u2581vie",
    "6317": "\u2581..",
    "6318": "\u0440\u043e\u0439",
    "6319": "\u2581<?",
    "6320": "\u2581educ",
    "6321": "kl",
    "6322": "ensis",
    "6323": "\u2581OR",
    "6324": "\u2581Hi",
    "6325": "\u2581Cour",
    "6326": "\u0431\u044b",
    "6327": "cert",
    "6328": "\u2581Ges",
    "6329": "essor",
    "6330": "Main",
    "6331": "\u2581\u043b\u044e",
    "6332": "cade",
    "6333": "dot",
    "6334": "augh",
    "6335": "hib",
    "6336": "\u2581automatically",
    "6337": "\u2581spir",
    "6338": "present",
    "6339": "\u2581February",
    "6340": "\u2581Elle",
    "6341": "custom",
    "6342": "\u2581proget",
    "6343": "\u2581administr",
    "6344": "AA",
    "6345": "\u2581born",
    "6346": "\u2581College",
    "6347": "athol",
    "6348": "`)",
    "6349": "ierre",
    "6350": "\u2581ran",
    "6351": "\u2581profession",
    "6352": "ogen",
    "6353": "}_{\\",
    "6354": "\u2581activity",
    "6355": "\u2581scroll",
    "6356": "\u2581prove",
    "6357": "ibrary",
    "6358": "eries",
    "6359": "Read",
    "6360": "year",
    "6361": "\u2581lang",
    "6362": "Det",
    "6363": "\u2581knew",
    "6364": "\u2581protected",
    "6365": "\u2581wor",
    "6366": "\u2581effic",
    "6367": "\u2581r\u00e9g",
    "6368": "\u2581theory",
    "6369": "\u2581published",
    "6370": "real",
    "6371": "\u2581Tour",
    "6372": "\u2581durante",
    "6373": "\u00e4s",
    "6374": "\u2581positive",
    "6375": "\u2581forward",
    "6376": "\u2581Rel",
    "6377": "{\"",
    "6378": "park",
    "6379": "\u2581Um",
    "6380": "\u2581eer",
    "6381": "enta",
    "6382": "\u2581imag",
    "6383": "\u043d\u043e\u0457",
    "6384": "piel",
    "6385": "\u2581jQuery",
    "6386": "isme",
    "6387": "chni",
    "6388": "organ",
    "6389": "\u2581args",
    "6390": "oir",
    "6391": "heim",
    "6392": "rian",
    "6393": "eless",
    "6394": "uses",
    "6395": "\u0434\u0438\u043d",
    "6396": "ici\u00f3n",
    "6397": "\u2581indust",
    "6398": "\u2581wish",
    "6399": "\u00e1ny",
    "6400": "oca",
    "6401": "\u2581angular",
    "6402": "ieved",
    "6403": "\u2581occur",
    "6404": "SELECT",
    "6405": "onia",
    "6406": "admin",
    "6407": "\u2581Best",
    "6408": "\u2581\u044d\u0442\u043e",
    "6409": "\u043e\u0433\u0440\u0430",
    "6410": "\u2581loss",
    "6411": "\u2581bal",
    "6412": "\u2581\u0420\u043e\u0441",
    "6413": "\u2581career",
    "6414": "\u2581\u043f\u0435",
    "6415": "IX",
    "6416": "\u2581fall",
    "6417": "\u2581Rob",
    "6418": "\u2581OP",
    "6419": "ened",
    "6420": "graphics",
    "6421": "\u2581coming",
    "6422": "Update",
    "6423": "\u2581died",
    "6424": "eden",
    "6425": "\u2581abs",
    "6426": "\u2581inner",
    "6427": "\u2581trav",
    "6428": "\u0441\u0442\u043e\u044f",
    "6429": "z\u0105",
    "6430": "\u00e9p",
    "6431": "\u2581Group",
    "6432": "\u2581cel",
    "6433": "\u2581stuff",
    "6434": "\u2581situation",
    "6435": "\u2581${",
    "6436": "acle",
    "6437": "\u2581purpose",
    "6438": "\u2581Fire",
    "6439": "\u2581Oh",
    "6440": "\u2581Second",
    "6441": "\u2581upload",
    "6442": "osta\u0142",
    "6443": "\u044e\u0449\u0438",
    "6444": "Auth",
    "6445": "\u2581showing",
    "6446": "\u2581completely",
    "6447": "avel",
    "6448": "bd",
    "6449": "\u2581proced",
    "6450": "\u2581\u00d6",
    "6451": "control",
    "6452": "\u2581thank",
    "6453": "undred",
    "6454": "\u2581tom",
    "6455": "\u2581examples",
    "6456": "\u2581remember",
    "6457": "\u2581\u0440\u0430\u0431\u043e",
    "6458": "\u2581possib",
    "6459": "\u2581detect",
    "6460": "\u2581poor",
    "6461": "\u2581Op",
    "6462": "\u2581century",
    "6463": "utter",
    "6464": "\u2581login",
    "6465": "unst",
    "6466": "Output",
    "6467": "\u2581otherwise",
    "6468": "lan",
    "6469": "\u0442\u0443\u0440",
    "6470": "\u2581\u0441\u043e\u0432",
    "6471": "\u2581groups",
    "6472": "rip",
    "6473": "\u2581shell",
    "6474": "\u2581district",
    "6475": "\u2581records",
    "6476": "\u2581si\u00e8",
    "6477": "fortun",
    "6478": "enty",
    "6479": "\u2581Tre",
    "6480": "\u2581changing",
    "6481": "\u0441\u043b\u0435\u0434",
    "6482": "aught",
    "6483": "\u2581deep",
    "6484": "subset",
    "6485": "agy",
    "6486": "endar",
    "6487": "jax",
    "6488": "OM",
    "6489": "El",
    "6490": "imate",
    "6491": "ardo",
    "6492": "\u2581plot",
    "6493": "\u2581visit",
    "6494": "\u2581bug",
    "6495": "\u2581\u0432\u0441\u0435",
    "6496": "\u2581opened",
    "6497": "\u2581repla",
    "6498": "\u2581Henry",
    "6499": "\u2581pp",
    "6500": "bas",
    "6501": "\u2581dark",
    "6502": "\u2581Martin",
    "6503": "\u2581resource",
    "6504": "iling",
    "6505": "\u2581watch",
    "6506": "replace",
    "6507": "\u2581release",
    "6508": "Location",
    "6509": "\u2581learning",
    "6510": "menu",
    "6511": "\u2581allows",
    "6512": "\u044a\u0440",
    "6513": "Length",
    "6514": "\u2581whatever",
    "6515": "\u2581pages",
    "6516": "\u2581compiler",
    "6517": "\u2581\u0442\u0430\u043a\u0436\u0435",
    "6518": "\u2581Pan",
    "6519": "command",
    "6520": "\u2581road",
    "6521": "\u2581unless",
    "6522": "`?",
    "6523": "\u2581discover",
    "6524": "\u2581\u043e\u043d",
    "6525": "}]",
    "6526": "bour",
    "6527": "\u2581Could",
    "6528": "\u2581regex",
    "6529": "\u2581ps",
    "6530": "CD",
    "6531": "\u0438\u0437",
    "6532": "\u2581wife",
    "6533": "amenti",
    "6534": "\u2581fair",
    "6535": "\u2581DB",
    "6536": "\u2581Cup",
    "6537": "enen",
    "6538": "ajax",
    "6539": "oth\u00e8que",
    "6540": "\u2581seiner",
    "6541": "icker",
    "6542": "\u00e1m",
    "6543": "exchange",
    "6544": "oles",
    "6545": "IF",
    "6546": "\u2581\u0414\u043e",
    "6547": "ohn",
    "6548": "\u2581grow",
    "6549": "\u2581Thus",
    "6550": "spec",
    "6551": "\u2581hatte",
    "6552": "#,",
    "6553": "allel",
    "6554": "\u2581rate",
    "6555": "\u2581central",
    "6556": "\u2581Van",
    "6557": "iforn",
    "6558": "Run",
    "6559": "\u2581study",
    "6560": "\u2581XML",
    "6561": "\u2581Che",
    "6562": "\u2581beaut",
    "6563": "mid",
    "6564": "\u2581advance",
    "6565": "Ver",
    "6566": "\u0442\u044f",
    "6567": "\u2581hands",
    "6568": "\u2581lay",
    "6569": "\u2581\u0161",
    "6570": "\u2581OS",
    "6571": "\u2581{}",
    "6572": "Pre",
    "6573": "\u2581Hall",
    "6574": "imp",
    "6575": "\u2581sun",
    "6576": "\u2581steps",
    "6577": "\u2581jud",
    "6578": "qui",
    "6579": "\u2581boot",
    "6580": "\u2581%>",
    "6581": "\u2581\u0412\u0430",
    "6582": "nost",
    "6583": "\u2581nem",
    "6584": "\u2581pen",
    "6585": "Open",
    "6586": "\u2581church",
    "6587": "\u043a\u043e\u043d",
    "6588": "\u2581average",
    "6589": "\u2581comments",
    "6590": "\u2581corresponding",
    "6591": "levant",
    "6592": "\u2581bed",
    "6593": "\u2581meaning",
    "6594": "Version",
    "6595": "Link",
    "6596": "bel",
    "6597": "\u2581extract",
    "6598": "\u015b\u0107",
    "6599": "\u2581IV",
    "6600": "\u2581Ir",
    "6601": "\u2581computer",
    "6602": "\u2581affect",
    "6603": "\u2581\u0421\u0442\u0430",
    "6604": "AX",
    "6605": "sort",
    "6606": "\u2581species",
    "6607": "\u2581Oper",
    "6608": "\u2581hash",
    "6609": "ches",
    "6610": "\u2581Einzeln",
    "6611": "\u2581keys",
    "6612": "\u2581marzo",
    "6613": "\u2581interpret",
    "6614": "hood",
    "6615": "\u2581coordin",
    "6616": "\u00f6s",
    "6617": "rage",
    "6618": "etz",
    "6619": "iza",
    "6620": "\u0434\u0435\u0440",
    "6621": "\u00fct",
    "6622": "^*",
    "6623": "\u2581modify",
    "6624": "\u2581termin",
    "6625": "\u2581cred",
    "6626": "zon",
    "6627": "\u043d\u0443\u044e",
    "6628": "\u2581mie",
    "6629": "\u2581''",
    "6630": "\u2581Mos",
    "6631": "\u2581connected",
    "6632": "NO",
    "6633": "\u2581compile",
    "6634": "\u2581\"\\",
    "6635": "\u2581cat",
    "6636": "fiddle",
    "6637": "uta",
    "6638": "Access",
    "6639": "\u2581Sto",
    "6640": "\u2581Bur",
    "6641": "\u2581north",
    "6642": "Gamma",
    "6643": "\u2581alloc",
    "6644": "Init",
    "6645": "\u2581Link",
    "6646": "ialize",
    "6647": "Impl",
    "6648": "oupe",
    "6649": "ropri",
    "6650": "\u2581Gold",
    "6651": "\u2581solo",
    "6652": "\u2581Dist",
    "6653": ",-",
    "6654": "nav",
    "6655": "\u2581alert",
    "6656": "esis",
    "6657": "\u2581Os",
    "6658": "///",
    "6659": "\u2581feb",
    "6660": "\u2581-->",
    "6661": "foot",
    "6662": "\u2581Fried",
    "6663": "\u2581Einzelnach",
    "6664": "\u2581rev",
    "6665": "zeit",
    "6666": "\u2581Stat",
    "6667": "\u2581Seg",
    "6668": "\u2581blo",
    "6669": "wick",
    "6670": "EL",
    "6671": "caption",
    "6672": "header",
    "6673": "\u2581president",
    "6674": "\u2581multip",
    "6675": "\u2581Einzelnachweise",
    "6676": "\u2581seine",
    "6677": "?\u201d",
    "6678": "Function",
    "6679": "\u2581Stand",
    "6680": "\u2581Function",
    "6681": "\u2581?>",
    "6682": "\u2581Bill",
    "6683": "\u2581spect",
    "6684": "\u2581redirect",
    "6685": "rupt",
    "6686": "\u2581walk",
    "6687": "\u0432\u0448\u0438",
    "6688": "springframework",
    "6689": "place",
    "6690": "\u00e9ho",
    "6691": "Entity",
    "6692": "\u2581Service",
    "6693": "inte",
    "6694": "\u2581training",
    "6695": "\u2581(`",
    "6696": "\u0444\u043e\u0440",
    "6697": "\u2581\u043a\u0440\u0430",
    "6698": "aur",
    "6699": "\u2581fetch",
    "6700": "\u2581\u2020",
    "6701": "\u2581m\u00eame",
    "6702": "\u2581('",
    "6703": "atively",
    "6704": "\u2581execut",
    "6705": "\u00e4ch",
    "6706": "\u2581Catalogue",
    "6707": "based",
    "6708": "Attribute",
    "6709": "\u2581spring",
    "6710": "phone",
    "6711": "\u0442\u0440\u0430",
    "6712": "\u2581\u043f\u0438",
    "6713": "\u0442\u0435\u0440\u0430",
    "6714": "\u2581`\\",
    "6715": "\u2581Od",
    "6716": "One",
    "6717": "send",
    "6718": "bon",
    "6719": "\u2581\u00b0",
    "6720": "MO",
    "6721": "\u2581asking",
    "6722": "\u2581o\u00f9",
    "6723": "\u2581ing\u00e5r",
    "6724": "\u2581testing",
    "6725": "\u2581\u0444\u0430",
    "6726": "\u2581Book",
    "6727": "imm",
    "6728": "\u2581progress",
    "6729": "bro",
    "6730": "First",
    "6731": "\u2581phot",
    "6732": "\u2581ON",
    "6733": "Template",
    "6734": "developer",
    "6735": "annot",
    "6736": "\u2581>=",
    "6737": "mission",
    "6738": "\u2581kt\u00f3",
    "6739": "pc",
    "6740": "bach",
    "6741": "zent",
    "6742": "ued",
    "6743": "\u2581ones",
    "6744": "\u0458\u0438",
    "6745": "\u2581rout",
    "6746": "\u2581\u041a\u0438",
    "6747": "Post",
    "6748": "\u0446\u0456\u0457",
    "6749": "\u2581Vir",
    "6750": "nek",
    "6751": "aging",
    "6752": "\u2581\u043e\u043a",
    "6753": "izont",
    "6754": "\u2581agosto",
    "6755": "\u2581choose",
    "6756": "\u2581\r",
    "6757": "\u2581systems",
    "6758": "loss",
    "6759": "iente",
    "6760": "\u2581Cre",
    "6761": "\u2581contra",
    "6762": "ums",
    "6763": "\u2581beginning",
    "6764": "emy",
    "6765": "istics",
    "6766": "\u2581served",
    "6767": "Down",
    "6768": "options",
    "6769": "\u2581Govern",
    "6770": "\u2581BY",
    "6771": "\u2581jest",
    "6772": "t\u00e9",
    "6773": "\u2581continue",
    "6774": "pers",
    "6775": "\u2581easier",
    "6776": "\u2581cos",
    "6777": "esso",
    "6778": ">>",
    "6779": "Net",
    "6780": "\u2581Bor",
    "6781": "\u2581Cr",
    "6782": "\u2581transfer",
    "6783": "\u2581CSS",
    "6784": "\u2581finns",
    "6785": "\u2581\u0445\u043e",
    "6786": "username",
    "6787": "\u2581constru",
    "6788": "\u2581pain",
    "6789": "\u2581Tem",
    "6790": "\u2581specified",
    "6791": "\u2581brit",
    "6792": "\u0441\u043a\u0438\u0435",
    "6793": "irk",
    "6794": "rapper",
    "6795": "\u2581counter",
    "6796": "\u2581[\"",
    "6797": "oded",
    "6798": "\u0434\u0430\u043d",
    "6799": "property",
    "6800": "hard",
    "6801": "istrict",
    "6802": ")/",
    "6803": "\u2581Pour",
    "6804": "\u2581Where",
    "6805": "\u2581===",
    "6806": "\u2581sowie",
    "6807": "\u2581\u041f\u0440\u043e",
    "6808": "\u2581dess",
    "6809": "\u2581tras",
    "6810": "\u2581\u0443\u0447\u0430",
    "6811": "\u2581Over",
    "6812": "note",
    "6813": "\u2581America",
    "6814": "cp",
    "6815": "\u2581grande",
    "6816": "Me",
    "6817": ")-",
    "6818": "Mode",
    "6819": "\u2581passing",
    "6820": "\u2581giving",
    "6821": "Cl",
    "6822": "}/",
    "6823": "Menu",
    "6824": "!!",
    "6825": "angular",
    "6826": "\u2581launch",
    "6827": "varphi",
    "6828": "\u2581Johann",
    "6829": "\u2581foreach",
    "6830": "r\u00f3",
    "6831": "sequ",
    "6832": "ifi",
    "6833": "Am",
    "6834": "arp",
    "6835": "\u2581buffer",
    "6836": "\u2581ni",
    "6837": "\u2581mix",
    "6838": "\u2581Museum",
    "6839": "\u2581meant",
    "6840": "asi",
    "6841": "\u2581kan",
    "6842": "\u043f\u0440\u0430\u0432",
    "6843": "Comp",
    "6844": "istoire",
    "6845": "iful",
    "6846": "jer",
    "6847": "issions",
    "6848": "Resource",
    "6849": "\u2581\u0432\u043e\u0437",
    "6850": "\u2581ST",
    "6851": "\u2581solutions",
    "6852": "\u2581belong",
    "6853": "\u2581Associ",
    "6854": "cf",
    "6855": "\u2581M\u00e4r",
    "6856": "\u2581grid",
    "6857": "Mult",
    "6858": "\u2581requires",
    "6859": "kk",
    "6860": "\u2581teach",
    "6861": "emeinde",
    "6862": "\u2581square",
    "6863": "\u2581\u043a\u043e\u043c\u0430\u043d",
    "6864": "\u2581Event",
    "6865": "\u2581rules",
    "6866": "\u2581bur",
    "6867": "\u2581eing",
    "6868": "\u2581Mai",
    "6869": "\u2581nam",
    "6870": "\u2581sl\u00e4",
    "6871": "h\u00f6r",
    "6872": "\u2581tip",
    "6873": "\u2581Literatur",
    "6874": "\u2581scope",
    "6875": "overline",
    "6876": "\u2581exit",
    "6877": ")?",
    "6878": "bet",
    "6879": "\u2581vict",
    "6880": "Off",
    "6881": "\u2581approxim",
    "6882": "\u2581Geb",
    "6883": "ktop",
    "6884": "heit",
    "6885": "\u2581\u042e",
    "6886": "template",
    "6887": "\u0440\u043e\u043d",
    "6888": "\u2581uno",
    "6889": "Serv",
    "6890": "\u2581framework",
    "6891": "operator",
    "6892": "\u2581generally",
    "6893": "\u2581hundred",
    "6894": "\u2581divers",
    "6895": "ovi",
    "6896": "\u2581r\u00e9s",
    "6897": "abs",
    "6898": "\u2581gal",
    "6899": "\u00e7ais",
    "6900": "\u2581feet",
    "6901": "\u2581virtual",
    "6902": "czy",
    "6903": "\u0441\u043a\u0443",
    "6904": "./",
    "6905": "hu",
    "6906": "ancy",
    "6907": "\u2581recommend",
    "6908": "\u2581\u043f\u0456\u0434",
    "6909": "\u2581money",
    "6910": "\u2581versions",
    "6911": "\u2581helps",
    "6912": "\u2581Hor",
    "6913": "Items",
    "6914": "look",
    "6915": "connect",
    "6916": "anges",
    "6917": "ViewController",
    "6918": "elijk",
    "6919": "\u2581occup",
    "6920": "\u2581editor",
    "6921": "auto",
    "6922": "\u00f6g",
    "6923": "\u2581seconds",
    "6924": "\u2581obvious",
    "6925": "vm",
    "6926": "akes",
    "6927": "\u2581gegen",
    "6928": "\u2581til",
    "6929": "jection",
    "6930": "\u043b\u0435\u043d\u043d\u044f",
    "6931": "\u2581operations",
    "6932": "\u2581East",
    "6933": "ogy",
    "6934": "\u2581Polit",
    "6935": "uten",
    "6936": "\u2581Joseph",
    "6937": "\"`",
    "6938": "\u2581Company",
    "6939": "\u2581callback",
    "6940": "\u2581sen",
    "6941": "cci\u00f3n",
    "6942": "\u2581associated",
    "6943": "\u2581containing",
    "6944": "\u2581practice",
    "6945": "elijke",
    "6946": "oke",
    "6947": "\u00e9ra",
    "6948": "uns",
    "6949": "anta",
    "6950": "vey",
    "6951": "zu",
    "6952": "\u2581Bes",
    "6953": "\u2581Flor",
    "6954": "mem",
    "6955": "ycz",
    "6956": "\u2581architect",
    "6957": "\u2581anni",
    "6958": "\u2581contact",
    "6959": "YPE",
    "6960": "\u2581Cas",
    "6961": "\u2581\u043f\u043e\u043b\u0443",
    "6962": "ovo",
    "6963": "\u2581bring",
    "6964": "\u2581concept",
    "6965": "\u2581js",
    "6966": "\u2581Referencias",
    "6967": "emble",
    "6968": "\u2581\u043d",
    "6969": "\u2581supported",
    "6970": "Big",
    "6971": "\u2581Hans",
    "6972": "erv",
    "6973": "\u2581Maj",
    "6974": "\u2581arriv",
    "6975": "\u2581Have",
    "6976": "\u2581probability",
    "6977": "\u2581Pop",
    "6978": "\u2581Pass",
    "6979": "token",
    "6980": "Provider",
    "6981": "\u2581Ra",
    "6982": "Reader",
    "6983": "ooth",
    "6984": "lap",
    "6985": "\u2581assist",
    "6986": "adow",
    "6987": "\u2581tests",
    "6988": "\u0441\u0441\u0438",
    "6989": "\u2581king",
    "6990": "langle",
    "6991": "\u2581Sum",
    "6992": "OIN",
    "6993": "\u2581security",
    "6994": "nis",
    "6995": "../",
    "6996": "\u2581basic",
    "6997": "unity",
    "6998": "`:",
    "6999": "\u2581\u043a\u043e\u0442\u043e",
    "7000": "kow",
    "7001": "\u2581Biblioth\u00e8que",
    "7002": "asion",
    "7003": "alo",
    "7004": "ifest",
    "7005": "\u2581novembre",
    "7006": "\u2581peu",
    "7007": "\u2581\u0416",
    "7008": "enschaft",
    "7009": "clus",
    "7010": "\u0458\u0443",
    "7011": "Height",
    "7012": "\u00fan",
    "7013": "\u2581tur",
    "7014": "\u2581ideas",
    "7015": "\u2581ces",
    "7016": "frak",
    "7017": "\u2581premier",
    "7018": "itation",
    "7019": "\u2581s\u00e9",
    "7020": "HTML",
    "7021": "\u2581Royal",
    "7022": "\u0441\u044c\u043a\u043e\u0457",
    "7023": "\u2581byte",
    "7024": "PS",
    "7025": "\u2581segu",
    "7026": "inen",
    "7027": "\u2581Great",
    "7028": "\u2581\u041a\u0443",
    "7029": "\u2581external",
    "7030": "Title",
    "7031": "Top",
    "7032": "Process",
    "7033": "it\u00e4t",
    "7034": "\u2581`/",
    "7035": "\u2581secret",
    "7036": "pository",
    "7037": "\u2581potential",
    "7038": "\u2581Bud",
    "7039": "names",
    "7040": "asons",
    "7041": "stackexchange",
    "7042": "background",
    "7043": "\u043f\u0435\u0440",
    "7044": "\u0441\u043e\u0432",
    "7045": "after",
    "7046": "\u2581pero",
    "7047": "\u2581software",
    "7048": "\u2581sed",
    "7049": "\u2581arrays",
    "7050": "tmp",
    "7051": "\u2581asp",
    "7052": "scale",
    "7053": "\u2581Lat",
    "7054": "anal",
    "7055": "\u2581gem",
    "7056": "PU",
    "7057": "\u2581Altri",
    "7058": "That",
    "7059": "\u2581\u041d\u0438",
    "7060": "ifact",
    "7061": "Address",
    "7062": "\u2581south",
    "7063": "\u2581formula",
    "7064": "\u2581Colleg",
    "7065": "\u2581\u0456\u043d",
    "7066": "ktion",
    "7067": "\u2581sac",
    "7068": "SH",
    "7069": "ajo",
    "7070": "etc",
    "7071": "vc",
    "7072": "`](",
    "7073": "\u2581Dur",
    "7074": "\u2581\u041c\u0435",
    "7075": "\u2581Smith",
    "7076": "items",
    "7077": "CK",
    "7078": "elo",
    "7079": "\u2581plugin",
    "7080": "\u2581serie",
    "7081": "ienne",
    "7082": "\u2581\u0438\u043b\u0438",
    "7083": "Mar",
    "7084": "\u2581Image",
    "7085": "got",
    "7086": "andas",
    "7087": "\u2581matches",
    "7088": "\u2581worth",
    "7089": "\u2581Deb",
    "7090": "\u2581cache",
    "7091": "\u2581felt",
    "7092": "ersch",
    "7093": "izes",
    "7094": "Oper",
    "7095": "\u2581Jahre",
    "7096": "\u2581commune",
    "7097": "thread",
    "7098": "\u2581ny",
    "7099": "dec",
    "7100": "ouw",
    "7101": "\u2581surface",
    "7102": "\u2581Por",
    "7103": "\u2581Street",
    "7104": "\u043f\u0440\u0438",
    "7105": "\u2581candid",
    "7106": "\u2581Return",
    "7107": "\u2581Kom",
    "7108": "gru",
    "7109": "\u2581\u0442\u0438",
    "7110": "[\\",
    "7111": "\u2581depends",
    "7112": "\u2581influ",
    "7113": "\u2581towards",
    "7114": "ained",
    "7115": "\u2581rank",
    "7116": "\u2581Januar",
    "7117": "\u2581components",
    "7118": "gest",
    "7119": "getElementById",
    "7120": "\u2581checked",
    "7121": "airs",
    "7122": "join",
    "7123": "\u2581dead",
    "7124": "\u2581hit",
    "7125": "\u00e9ny",
    "7126": "\u2581equivalent",
    "7127": "\u2581\u041f\u0440\u0435",
    "7128": "\u2581appropri",
    "7129": "Pass",
    "7130": "\u2581primer",
    "7131": "englisch",
    "7132": "\u2581appar",
    "7133": "\u2581During",
    "7134": "\u2581knowledge",
    "7135": "\u2581trigger",
    "7136": "\u2581core",
    "7137": "\u2581Ol",
    "7138": "\u2581Produ",
    "7139": "\u2581Fern",
    "7140": "\u2581\u043d\u0430\u0447\u0430",
    "7141": "Te",
    "7142": "\u2581Mot",
    "7143": "erve",
    "7144": "\u0442\u0432\u043e",
    "7145": "\u2581mid",
    "7146": "\u2581finally",
    "7147": "aires",
    "7148": "\u2581especially",
    "7149": "\u2581tut",
    "7150": "\u2581receive",
    "7151": "adre",
    "7152": "\u2581neigh",
    "7153": "ktet",
    "7154": "ilde",
    "7155": "\u2581radio",
    "7156": "\u2581driver",
    "7157": "\u043b\u0438\u0441\u044c",
    "7158": "endencies",
    "7159": "\u2581IE",
    "7160": "\u2581saved",
    "7161": "ffect",
    "7162": "\u2581Wayback",
    "7163": "iat",
    "7164": "\u2581padding",
    "7165": "window",
    "7166": "\u0442\u0438\u0447\u0435",
    "7167": "\u2581mur",
    "7168": "actor",
    "7169": "\u2581Han",
    "7170": "\u043e\u043d\u0430\u043b\u044c",
    "7171": "\u2581gar",
    "7172": "\u2581familjen",
    "7173": "\u00f3s",
    "7174": "\u2581nationale",
    "7175": "\u2581pr\u00e9",
    "7176": "ded",
    "7177": "onal",
    "7178": "\u2581President",
    "7179": "\u2581\\,",
    "7180": "\u2581placed",
    "7181": "erni",
    "7182": "\u2581signal",
    "7183": "nab",
    "7184": "hm",
    "7185": "Mon",
    "7186": "\u2581vs",
    "7187": "SC",
    "7188": "\u2581progetti",
    "7189": "\u2581\u00dc",
    "7190": "\u2581forms",
    "7191": "\u2581messages",
    "7192": "inf",
    "7193": "users",
    "7194": "GET",
    "7195": "\u2581dels",
    "7196": "Collection",
    "7197": "\u2581Good",
    "7198": "\u2581Maybe",
    "7199": "\u2581compr",
    "7200": "\u2581larger",
    "7201": "gres",
    "7202": "aper",
    "7203": "\u2581\u041f\u0440\u0438",
    "7204": "undes",
    "7205": "\u2581sea",
    "7206": "\u2581Spring",
    "7207": "ulo",
    "7208": "\u2581mechan",
    "7209": "\u2581sans",
    "7210": "GB",
    "7211": "Valid",
    "7212": "\u2581communic",
    "7213": "\u2581pra",
    "7214": "vier",
    "7215": "\u2581\u0421\u0435",
    "7216": "\u2581ain",
    "7217": "\u0442\u0443\u0440\u0430",
    "7218": "kom",
    "7219": "skiego",
    "7220": "\u043a\u043e\u0432\u043e",
    "7221": "adata",
    "7222": "\u2581\u0420\u0435",
    "7223": "\u2581boolean",
    "7224": "sets",
    "7225": "\u2581effort",
    "7226": ".[",
    "7227": "\u2581zosta\u0142",
    "7228": "PA",
    "7229": "\u2581Vict",
    "7230": "SD",
    "7231": "owa\u0142",
    "7232": "\u2581emb",
    "7233": "\u2581prima",
    "7234": "\u2581hour",
    "7235": "subsection",
    "7236": "\u2581Fort",
    "7237": "mathfrak",
    "7238": "igin",
    "7239": "GL",
    "7240": ")+",
    "7241": "fi",
    "7242": "\u2581anci",
    "7243": "\u2581pan",
    "7244": "\\)",
    "7245": "\u2581lug",
    "7246": "\u2581deploy",
    "7247": "domain",
    "7248": "\u2581slight",
    "7249": "JSON",
    "7250": "\u2581morning",
    "7251": "\u2581hi",
    "7252": "\u2581compare",
    "7253": "ije",
    "7254": "\u2581blue",
    "7255": "\u2581Ac",
    "7256": "\u2581middle",
    "7257": "anden",
    "7258": "\u2581shared",
    "7259": "\u2581Camp",
    "7260": "\u2581\u00c1",
    "7261": "ounded",
    "7262": "uw",
    "7263": "ierung",
    "7264": "Stack",
    "7265": "\u2581eines",
    "7266": "\u2581Da",
    "7267": "lij",
    "7268": "enti",
    "7269": "\u2581\u0439",
    "7270": "Util",
    "7271": "\u2581experience",
    "7272": "\u2581await",
    "7273": "uls",
    "7274": "\u2581requests",
    "7275": "\u2581impos",
    "7276": "\u2581constraint",
    "7277": "Change",
    "7278": "emph",
    "7279": "\u0431\u0435\u0440",
    "7280": "\u2581Another",
    "7281": "Custom",
    "7282": "\u2581significant",
    "7283": "cr",
    "7284": "\u2581million",
    "7285": "reek",
    "7286": "\u2581dalla",
    "7287": "\u2581Germ",
    "7288": "otal",
    "7289": "ateur",
    "7290": "btn",
    "7291": "\u2581thinking",
    "7292": "\u2581interval",
    "7293": "onne",
    "7294": "\u2581liv",
    "7295": "():",
    "7296": "\u2581\u0412\u0435",
    "7297": "oe",
    "7298": "\u2581Ev",
    "7299": "meta",
    "7300": "\u2581broad",
    "7301": "Rem",
    "7302": "apply",
    "7303": "\u2581couple",
    "7304": "\u2581techni",
    "7305": "idades",
    "7306": "\u2581goal",
    "7307": "\u2581CD",
    "7308": "hab",
    "7309": "\u2581explan",
    "7310": "anner",
    "7311": "\u2581Because",
    "7312": "blog",
    "7313": "includegraphics",
    "7314": "\u2581voice",
    "7315": "\u2581Map",
    "7316": "vention",
    "7317": "Session",
    "7318": "\u2581Liens",
    "7319": "\u2581sor",
    "7320": "category",
    "7321": "ashington",
    "7322": "\u2581M\u00e4rz",
    "7323": "pop",
    "7324": "illet",
    "7325": "\u2581zwei",
    "7326": "\u2581Lie",
    "7327": "Null",
    "7328": "address",
    "7329": "\u2581factor",
    "7330": "\u2581ligne",
    "7331": "\u2581HTTP",
    "7332": "\u2581suf",
    "7333": "\u2581personal",
    "7334": "cip",
    "7335": "\u2581Dar",
    "7336": "\u2581adm",
    "7337": "\u043a\u043e\u0439",
    "7338": "\u2581Ext",
    "7339": "\u2581god",
    "7340": "aa",
    "7341": "Right",
    "7342": "\u00e9t\u00e9",
    "7343": "\u2581dynamic",
    "7344": "\u2581maintain",
    "7345": "tor",
    "7346": "########",
    "7347": "\u2581Fra",
    "7348": "\u2581choice",
    "7349": "\u2581\u0441\u0442\u043e",
    "7350": "\u0421\u0420",
    "7351": "\u2581Feder",
    "7352": "ston",
    "7353": "\u2581flag",
    "7354": "kit",
    "7355": "Module",
    "7356": "\u2581\u0441\u043f\u043e",
    "7357": "\u2581Stra",
    "7358": "icks",
    "7359": "\u2581haven",
    "7360": "\u2581Mass",
    "7361": "\u2581Emp",
    "7362": "\u2581Pi",
    "7363": "\u2581Pen",
    "7364": "Rect",
    "7365": "\u2581Kr",
    "7366": "itat",
    "7367": "eler",
    "7368": "\u044f\u0431\u0440\u044f",
    "7369": "itet",
    "7370": "\u2581Start",
    "7371": "\u2581produced",
    "7372": "\u2581\u043f\u043e\u043b",
    "7373": "(_",
    "7374": "\u2581delet",
    "7375": "\u2581hot",
    "7376": "\u2581Geschichte",
    "7377": "~~",
    "7378": "\u2581months",
    "7379": "\u2581tod",
    "7380": "\u2581\u043d\u0438",
    "7381": "\u00fas",
    "7382": "temp",
    "7383": "\u2581Dez",
    "7384": "ypes",
    "7385": "\u2581cui",
    "7386": "ommun",
    "7387": "actions",
    "7388": "\u2581eigen",
    "7389": "\u2581immediately",
    "7390": "PL",
    "7391": "\u2581\u0413\u043e",
    "7392": "\u2581Bal",
    "7393": "\u0459\u0435",
    "7394": "ului",
    "7395": "\u2581online",
    "7396": "\u2581a\u00f1os",
    "7397": "\u2581namespace",
    "7398": "\u2581mond",
    "7399": "\u2581Base",
    "7400": "\u2581Canada",
    "7401": "etzt",
    "7402": "}-",
    "7403": "\u2581defin",
    "7404": "\u2581doubt",
    "7405": "\u2581investig",
    "7406": "views",
    "7407": "\u2581Line",
    "7408": "\u2581stage",
    "7409": "ettings",
    "7410": "ubre",
    "7411": "float",
    "7412": "\u2581Play",
    "7413": "\u2581Las",
    "7414": "ptr",
    "7415": "\u2581becomes",
    "7416": "estamp",
    "7417": "\u2581independent",
    "7418": "\u2581analysis",
    "7419": "\u2581Look",
    "7420": "lain",
    "7421": "\u2581\u0440\u0430\u0441",
    "7422": "Reference",
    "7423": "\u2581sorry",
    "7424": "\u2581supposed",
    "7425": "\u00fbt",
    "7426": "\u2581degree",
    "7427": "utz",
    "7428": "MM",
    "7429": "\u2581desired",
    "7430": "\u0142y",
    "7431": "\u2581len",
    "7432": "\u2581alone",
    "7433": "signed",
    "7434": "\u2581Sta",
    "7435": "Person",
    "7436": "\u2581applied",
    "7437": "\u2581Back",
    "7438": "\u2581mars",
    "7439": "Part",
    "7440": "\u2581Did",
    "7441": "\u2581externes",
    "7442": "\u2581np",
    "7443": "ongo",
    "7444": "\u2581esta",
    "7445": "Block",
    "7446": "\u2581pou",
    "7447": "adores",
    "7448": "\u2581Studio",
    "7449": ".$",
    "7450": "\u2581reached",
    "7451": "bot",
    "7452": "\u2581Juni",
    "7453": "tons",
    "7454": "itel",
    "7455": "\u2581Gar",
    "7456": "\u2581articles",
    "7457": "\u2581District",
    "7458": "\u2581trouble",
    "7459": "lide",
    "7460": "\u2581Found",
    "7461": "\u00e1d",
    "7462": "\u2581equip",
    "7463": "\u2581internal",
    "7464": "'],",
    "7465": "\u2581async",
    "7466": "UB",
    "7467": "gel",
    "7468": "\u2581ai",
    "7469": "ensure",
    "7470": "\u2581appeared",
    "7471": "\u2581$_",
    "7472": "\u2581maximum",
    "7473": "\u2581\u0421\u0438",
    "7474": "\u0440\u044c",
    "7475": "\u2581announ",
    "7476": "\u043b\u0430\u0441\u044c",
    "7477": "\u2581cm",
    "7478": "\u0433\u0430\u043d",
    "7479": "aupt",
    "7480": "\u2581latter",
    "7481": "\u2581platform",
    "7482": "\u2581dra",
    "7483": "\u2581capital",
    "7484": "\u2581solved",
    "7485": "riz",
    "7486": "edic",
    "7487": "\u2581Mur",
    "7488": "\u2581Top",
    "7489": "\u0442\u0441\u044f",
    "7490": "Panel",
    "7491": "rule",
    "7492": "etic",
    "7493": "\u2581Ren",
    "7494": "\u2581Wikimedia",
    "7495": "\u2581TO",
    "7496": "second",
    "7497": "isl",
    "7498": "\u2581hy",
    "7499": "\u2581niet",
    "7500": "\u2581loaded",
    "7501": "dig",
    "7502": "\u2581mayo",
    "7503": "[:",
    "7504": "Acc",
    "7505": "\u2581bek",
    "7506": "\u043d\u0438\u044e",
    "7507": "login",
    "7508": "tx",
    "7509": "\u2581Fur",
    "7510": "\u2581Santa",
    "7511": "azz",
    "7512": "\u2581conduct",
    "7513": "\u2581India",
    "7514": "Order",
    "7515": "irth",
    "7516": "tw",
    "7517": "}+",
    "7518": "\u2581wieder",
    "7519": "\u2581Edu",
    "7520": "AV",
    "7521": "\u2581```",
    "7522": "\u2581manually",
    "7523": "\u2581Read",
    "7524": "fortunately",
    "7525": "\u2581Run",
    "7526": "\u2581Award",
    "7527": "\u2581Foot",
    "7528": "*)",
    "7529": "params",
    "7530": "\u043f\u0456",
    "7531": "\u2581native",
    "7532": "rift",
    "7533": "\u2581\u00e4",
    "7534": "ATH",
    "7535": "\u2581yourself",
    "7536": "\u2581prior",
    "7537": "\u2581cit",
    "7538": "\u00e4h",
    "7539": "\u2581treat",
    "7540": "\u2581meas",
    "7541": "ributed",
    "7542": "\u2581clar",
    "7543": "card",
    "7544": "ROR",
    "7545": "illes",
    "7546": "\u2581layer",
    "7547": "auer",
    "7548": "\u2581rat",
    "7549": "bernate",
    "7550": "\u2581stato",
    "7551": "\u2581China",
    "7552": "\u2581$('#",
    "7553": "\u2581naar",
    "7554": "zip",
    "7555": "\u2581${\\",
    "7556": "\u2581appreciated",
    "7557": "\u2581\u0438\u043c\u0435",
    "7558": "\u017cy",
    "7559": "\u2581przez",
    "7560": "\u2581Indian",
    "7561": "\u2581Tod",
    "7562": "\u2581Source",
    "7563": "\u2581\u0434\u0440\u0443\u0433\u0438",
    "7564": "internal",
    "7565": "ionale",
    "7566": "Product",
    "7567": "\u2581Men",
    "7568": "\u2581upper",
    "7569": "\u2581Every",
    "7570": "},\\",
    "7571": "\u2581printf",
    "7572": "\u2581continued",
    "7573": "\u2581nodes",
    "7574": "\u043b\u043a\u0438",
    "7575": "\u2581nice",
    "7576": "modules",
    "7577": "eign",
    "7578": "\u2581Mex",
    "7579": "\u2581According",
    "7580": "\u2581undefined",
    "7581": "\u2581binary",
    "7582": "cut",
    "7583": "Current",
    "7584": "edy",
    "7585": "}}{",
    "7586": "bles",
    "7587": "\u2581\u0432\u043e\u0439",
    "7588": "scri",
    "7589": "eqn",
    "7590": "Changed",
    "7591": "\u2581k\u00f6z",
    "7592": "\u2581remote",
    "7593": "\u0432\u043b\u044f",
    "7594": "\u2581quel",
    "7595": "\u2581align",
    "7596": "\u2581\u043f\u0430\u0440",
    "7597": "SV",
    "7598": "yer",
    "7599": "\u2581Californ",
    "7600": "\u2581places",
    "7601": "\u2581primary",
    "7602": "\u2581conv",
    "7603": "\u2581Juli",
    "7604": "\u2581visual",
    "7605": "\u2581Select",
    "7606": "atory",
    "7607": "=(",
    "7608": "iser",
    "7609": "\u2581intent",
    "7610": "sur",
    "7611": "container",
    "7612": "iced",
    "7613": "\u2581board",
    "7614": "astr",
    "7615": "omial",
    "7616": "\u0432\u0435\u0442",
    "7617": "\u0437\u0432\u0430",
    "7618": "\u2581cru",
    "7619": "\u2581Oktober",
    "7620": "save",
    "7621": "\u2581greater",
    "7622": "\u2581inn",
    "7623": "\u2581picture",
    "7624": "\u2581\u0422\u043e",
    "7625": "\u2581obtained",
    "7626": "Wikimedia",
    "7627": "\u00fablic",
    "7628": "\u2581lors",
    "7629": "\u2581mont",
    "7630": "obre",
    "7631": "\u2581civil",
    "7632": "\u2581construction",
    "7633": "\u2581Welt",
    "7634": "\u2581Under",
    "7635": "undert",
    "7636": "\u2581edge",
    "7637": "\u2581Liste",
    "7638": "csv",
    "7639": "\u2581experiment",
    "7640": "localhost",
    "7641": "\u2581Edit",
    "7642": "greg",
    "7643": "ov\u00e1",
    "7644": "\u0459\u0430",
    "7645": "msg",
    "7646": "\u2581Green",
    "7647": "Dialog",
    "7648": "Ident",
    "7649": "\u2581JS",
    "7650": "^{(",
    "7651": "\u2581sl\u00e4ktet",
    "7652": "____",
    "7653": "Project",
    "7654": "\u2581beskre",
    "7655": "\u2581ber",
    "7656": "\u2581wouldn",
    "7657": "\u2581react",
    "7658": "Hel",
    "7659": "zw",
    "7660": "\u2581Washington",
    "7661": "orie",
    "7662": "task",
    "7663": "\u2581category",
    "7664": "\u2581artist",
    "7665": "anno",
    "7666": "\u2581ook",
    "7667": "ammen",
    "7668": "\u2581Minister",
    "7669": "\u2581declar",
    "7670": "\u2581Key",
    "7671": ",.",
    "7672": "\u2581mach",
    "7673": "\u2581ww",
    "7674": "isen",
    "7675": "Fran",
    "7676": "\u2581\u0420\u043e\u0441\u0441\u0438",
    "7677": "\u0431\u043e\u0440",
    "7678": "\u0442\u0440\u0438",
    "7679": "\u2581rock",
    "7680": "quis",
    "7681": "mos",
    "7682": "\u043f\u0435\u0440\u0430",
    "7683": "\u2581esterni",
    "7684": "\u2581gold",
    "7685": "Windows",
    "7686": "%%",
    "7687": "\u2581partial",
    "7688": "\u2581weight",
    "7689": "\u2581spr",
    "7690": "}).",
    "7691": "\u2581fran\u00e7ais",
    "7692": "fun",
    "7693": "\u2581thous",
    "7694": "holder",
    "7695": "\u2581gone",
    "7696": "\u2581\u010c",
    "7697": "\u2581rend",
    "7698": "DA",
    "7699": "\u2581answered",
    "7700": "\u2581False",
    "7701": "Buffer",
    "7702": "\u2581daugh",
    "7703": ".--",
    "7704": "\u2581Show",
    "7705": "\u2581rect",
    "7706": "\u2581Kre",
    "7707": "dr",
    "7708": "osoph",
    "7709": "\u2581yield",
    "7710": "urity",
    "7711": "toString",
    "7712": "aval",
    "7713": "Pol",
    "7714": "\u2581lock",
    "7715": "imation",
    "7716": "antic",
    "7717": "Local",
    "7718": "\u2581beskrevs",
    "7719": "it\u00e9s",
    "7720": "grid",
    "7721": "\u0443\u0442",
    "7722": "\u2581_{",
    "7723": "\u0441\u0456",
    "7724": "FILE",
    "7725": "\u2581\u043a\u043c",
    "7726": "\u2581speak",
    "7727": "summary",
    "7728": "prop",
    "7729": "javascript",
    "7730": "zk",
    "7731": "izontal",
    "7732": "\u2581trois",
    "7733": "\u2581Rod",
    "7734": "prise",
    "7735": "\u0440\u043e\u0432\u043e",
    "7736": "\u2581odd",
    "7737": "\u2581gest",
    "7738": "\u2581produce",
    "7739": "\u2581waar",
    "7740": "\u2581Av",
    "7741": "ribu",
    "7742": "\u0432\u0430\u043d\u043d\u044f",
    "7743": "\u2581finished",
    "7744": "\u2581adapt",
    "7745": "\u2581Sar",
    "7746": "textit",
    "7747": "\u2581Ce",
    "7748": "\u2581Fa",
    "7749": "osen",
    "7750": "\u2581deriv",
    "7751": "\u2581ship",
    "7752": "\u2581opin",
    "7753": "\u2581Even",
    "7754": "gesch",
    "7755": "\u2581suppose",
    "7756": "\u2581Fer",
    "7757": "\u0441\u043a\u043e\u0435",
    "7758": "\u2581worden",
    "7759": "sey",
    "7760": "hline",
    "7761": "\u2581Union",
    "7762": "\u2581/**",
    "7763": "\u2581vez",
    "7764": "\u2581Collegamenti",
    "7765": "\u2581Society",
    "7766": "\u2581econom",
    "7767": "\u0161\u00ed",
    "7768": "oi",
    "7769": "\u2581orient",
    "7770": "\u2581Teil",
    "7771": "rent",
    "7772": "\u043b\u0435\u043a\u0441",
    "7773": "\u2581solid",
    "7774": "\u2581cart",
    "7775": "****************",
    "7776": "\u2581cab",
    "7777": "\u2581Message",
    "7778": "dots",
    "7779": "\u2581\u00e9g",
    "7780": "\u2581twe",
    "7781": "aga",
    "7782": "\u2581naz",
    "7783": "\u2581Microsoft",
    "7784": "\u2581underarter",
    "7785": "ppen",
    "7786": "\u2581recent",
    "7787": "\u2581net",
    "7788": "\u2581resources",
    "7789": "Ste",
    "7790": ".\\",
    "7791": "\u2581SO",
    "7792": "\u043b\u043e\u043c",
    "7793": "\u2581cele",
    "7794": "\u2581lic",
    "7795": "\u2581benef",
    "7796": "ldots",
    "7797": "\u2581serial",
    "7798": "Integer",
    "7799": "cles",
    "7800": "\u2581miles",
    "7801": "\u2581Ale",
    "7802": "\u2581entered",
    "7803": "\u2581Two",
    "7804": "wie",
    "7805": "\u2581includes",
    "7806": "\u2581Each",
    "7807": "elling",
    "7808": "quer",
    "7809": "\u2581Dom",
    "7810": "pf",
    "7811": "WS",
    "7812": "\u2581straight",
    "7813": "\u2581Stan",
    "7814": "\u2581nos",
    "7815": "\u00edcul",
    "7816": "atro",
    "7817": "\u2581Center",
    "7818": "FT",
    "7819": "\u2581Inga",
    "7820": "ilo",
    "7821": "\u2581www",
    "7822": "jsfiddle",
    "7823": "nic",
    "7824": "\u2581European",
    "7825": "\u2581commer",
    "7826": "\u2581girl",
    "7827": "total",
    "7828": "\u2581Star",
    "7829": "\u2581suggested",
    "7830": "pal",
    "7831": "\u2581zwischen",
    "7832": "\u043f\u0438\u0441\u0430",
    "7833": "IM",
    "7834": "\u2581handler",
    "7835": "\u2581Program",
    "7836": "xsl",
    "7837": "\u00e1ly",
    "7838": "BU",
    "7839": ",--",
    "7840": "\u2581vid",
    "7841": "\u2581established",
    "7842": "\u2581Spiel",
    "7843": "ometry",
    "7844": "unes",
    "7845": "\u2581sit",
    "7846": "\u2581inher",
    "7847": "\u2581puis",
    "7848": "\u2581\u00eatre",
    "7849": "\u2581Most",
    "7850": "Header",
    "7851": "insert",
    "7852": "\u2581sist",
    "7853": "\u2581favor",
    "7854": "dest",
    "7855": "\u2581entity",
    "7856": "Cal",
    "7857": "\u2581Therefore",
    "7858": "DD",
    "7859": ";;",
    "7860": "\u2581Dezember",
    "7861": "\u2581Rh",
    "7862": "iments",
    "7863": "\u2581returning",
    "7864": "sto",
    "7865": "\u2581Value",
    "7866": "\u2581liber",
    "7867": "\u2581Result",
    "7868": "\u2581bind",
    "7869": "voir",
    "7870": "\u2581Tim",
    "7871": "\u2581Movie",
    "7872": "weg",
    "7873": "ket",
    "7874": "\u2581\u0438\u0441\u0442\u043e",
    "7875": "\u2581friends",
    "7876": "\u2581fn",
    "7877": "\u2581\u00e9l",
    "7878": "\u2581&=",
    "7879": "arden",
    "7880": "fficial",
    "7881": "\u2581community",
    "7882": "\u2581api",
    "7883": "Args",
    "7884": "ieren",
    "7885": "\u2581dann",
    "7886": "omorph",
    "7887": "adr",
    "7888": "loop",
    "7889": "uman",
    "7890": "\u2581vous",
    "7891": "bst",
    "7892": "submit",
    "7893": "\\|",
    "7894": "\u0442\u0438\u043d",
    "7895": "Container",
    "7896": "asket",
    "7897": "?)",
    "7898": "Sec",
    "7899": "\u2581drive",
    "7900": "Ass",
    "7901": "\u2581swe",
    "7902": "\u2581amer",
    "7903": "\u2581mine",
    "7904": "\u2581Ham",
    "7905": "\u2581avait",
    "7906": "\u2581Hon",
    "7907": "\u2581apr\u00e8s",
    "7908": "\u2581Mann",
    "7909": "\u0441\u044c\u043a\u0430",
    "7910": "\u2581increase",
    "7911": "\u2581ty",
    "7912": "sky",
    "7913": "\u2581accur",
    "7914": "article",
    "7915": "weight",
    "7916": "\u2581sex",
    "7917": "\u2581listade",
    "7918": "/**",
    "7919": "\u2581est\u00e1",
    "7920": "}}$",
    "7921": "argo",
    "7922": "define",
    "7923": "\u2581\u0441\u043e\u0441\u0442\u0430\u0432",
    "7924": "session",
    "7925": "ads",
    "7926": "\u0441\u0442\u0432\u0438",
    "7927": "\u2581Law",
    "7928": "\u2581dialog",
    "7929": "\u2581duplicate",
    "7930": "\u2581\u00e9p",
    "7931": "\u2581voc",
    "7932": "fri",
    "7933": "\u2581green",
    "7934": "\u2581hidden",
    "7935": "\u2581Island",
    "7936": "\u2581diag",
    "7937": "owej",
    "7938": "mysql",
    "7939": "teil",
    "7940": "r\u00e4",
    "7941": "ikan",
    "7942": "\u2581Jos\u00e9",
    "7943": "aled",
    "7944": "Runtime",
    "7945": "\u2581train",
    "7946": "\u2581Division",
    "7947": "\u043d\u0438\u0446",
    "7948": "\u2581Span",
    "7949": "\u043d\u0438\u043c\u0430",
    "7950": ")=\\",
    "7951": "\u0442\u0430\u043d",
    "7952": "\u2581stay",
    "7953": "\u2581foo",
    "7954": "\u2581accom",
    "7955": "\u2581hers",
    "7956": "\u2581\u043d\u0430\u0443",
    "7957": "\u2581M\u00fcn",
    "7958": "ideos",
    "7959": "static",
    "7960": "\u2581ready",
    "7961": "]`",
    "7962": "\u2581visible",
    "7963": "\u2581Hope",
    "7964": "ulated",
    "7965": "\u2581Cult",
    "7966": "\u0441\u0442\u0440\u043e",
    "7967": "Co",
    "7968": "\u2581smaller",
    "7969": "atura",
    "7970": "\u2581perfectly",
    "7971": "req",
    "7972": "\u2581proposed",
    "7973": "\u2581degli",
    "7974": "Search",
    "7975": "\u2581ich",
    "7976": "Max",
    "7977": "\u2581volume",
    "7978": "execute",
    "7979": "gre",
    "7980": "\u2581sport",
    "7981": "udad",
    "7982": "PT",
    "7983": "\u2581Records",
    "7984": "\u2581cook",
    "7985": "\u2581expand",
    "7986": "\u0431\u0456",
    "7987": "\u2581altri",
    "7988": "ppet",
    "7989": "arse",
    "7990": "\u2581wet",
    "7991": "\u2581Bob",
    "7992": "\u2581FC",
    "7993": "\u2581Association",
    "7994": "uje",
    "7995": "\u2581fel",
    "7996": "\u2581\u0441\u043b\u0443",
    "7997": "\u2581Big",
    "7998": "/\\",
    "7999": "Ge",
    "8000": "while",
    "8001": "{(",
    "8002": "\u2581sufficient",
    "8003": "Position",
    "8004": "\u2581understanding",
    "8005": "\u2581nue",
    "8006": "\u2581raz",
    "8007": "\u2581ye",
    "8008": "hem",
    "8009": "Num",
    "8010": "\u2581Project",
    "8011": "\u2581Its",
    "8012": "\u2581hasta",
    "8013": "enso",
    "8014": "\u2581wire",
    "8015": "Ret",
    "8016": "uj",
    "8017": "proof",
    "8018": "\u2581relevant",
    "8019": "\u2581partir",
    "8020": "\u2581ago",
    "8021": "ificate",
    "8022": "\u2581domin",
    "8023": "\u2581boy",
    "8024": "\u2581plant",
    "8025": "\u2581encoding",
    "8026": "\u2581throws",
    "8027": "\u2581Rock",
    "8028": "zone",
    "8029": "gang",
    "8030": "widget",
    "8031": "\u2581interesting",
    "8032": "DER",
    "8033": "\u2581demon",
    "8034": "\u2581office",
    "8035": "amt",
    "8036": "\u00e4ter",
    "8037": "\u2581White",
    "8038": "\u2581versch",
    "8039": "\u2581dieser",
    "8040": "\u2581Mount",
    "8041": "\u2581students",
    "8042": "\u2581Pub",
    "8043": "\u2581\u0414\u0435",
    "8044": "ija",
    "8045": "\u2581Cy",
    "8046": "\u2581California",
    "8047": "\u2581abril",
    "8048": "\u00e4ll",
    "8049": "\u2581\u0447\u0435\u043c",
    "8050": "TV",
    "8051": "\u2581m\u00e9s",
    "8052": "\u2581declared",
    "8053": "\u2581\u044e",
    "8054": "\u0151l",
    "8055": "appa",
    "8056": "\u2581\u0411\u0435",
    "8057": "echo",
    "8058": "numer",
    "8059": "\u2581posted",
    "8060": "\u2581\u0432\u0435\u0440",
    "8061": "\u2581\u0433\u043e\u0434\u0438\u043d\u0435",
    "8062": "\u2581weak",
    "8063": "\u2581Republic",
    "8064": "\u2581champion",
    "8065": "ensuremath",
    "8066": "your",
    "8067": "\u2581Ober",
    "8068": "\u2581Central",
    "8069": "isa",
    "8070": "\u0430\u043d\u0434",
    "8071": "yy",
    "8072": "\u2581fully",
    "8073": "\u2581SD",
    "8074": "\u2581Linux",
    "8075": "\u2581Scott",
    "8076": "partment",
    "8077": "kon",
    "8078": "\u2581contract",
    "8079": "\u2581OF",
    "8080": "\u2581ale",
    "8081": "\u2581Ann",
    "8082": "\u2581\u043d\u0430\u0434",
    "8083": "lah",
    "8084": "\u2581Next",
    "8085": "oren",
    "8086": "\u2581disk",
    "8087": "\u2581eg",
    "8088": "atu",
    "8089": "\u043b\u043e\u0433\u0438",
    "8090": "\u2581games",
    "8091": "Left",
    "8092": "\u2581lu",
    "8093": "\u2581finite",
    "8094": "\u2581\u043a\u0438",
    "8095": "\u2581crash",
    "8096": "pher",
    "8097": "exe",
    "8098": "ATION",
    "8099": "\u2581brother",
    "8100": "Eng",
    "8101": "tat",
    "8102": "\u2581Integer",
    "8103": "\u043d\u043e\u043c\u0443",
    "8104": "\u2581colon",
    "8105": "iqu",
    "8106": ")).",
    "8107": "ivi",
    "8108": "\u2581Method",
    "8109": "arten",
    "8110": "Uni",
    "8111": "vector",
    "8112": "\u2581wood",
    "8113": "\u0440\u0442",
    "8114": "\u2581\u041b\u0435",
    "8115": "\u2581si\u00e8cle",
    "8116": "\u2581gent",
    "8117": "}\r",
    "8118": "\u2581contents",
    "8119": "\u2581compan",
    "8120": "Go",
    "8121": "\u2581jou",
    "8122": "uent",
    "8123": "Async",
    "8124": "printf",
    "8125": "\u2581Model",
    "8126": "\u2581kept",
    "8127": "ASE",
    "8128": "\u2581provides",
    "8129": "\u2581Abgerufen",
    "8130": "\u2581Gall",
    "8131": "\u2581Alf",
    "8132": "SA",
    "8133": "\u2581Mem",
    "8134": "\u2581kter",
    "8135": "\u2581Bru",
    "8136": "Android",
    "8137": "(:",
    "8138": "\u2581\u0423\u043a\u0440\u0430\u0457",
    "8139": "Ne",
    "8140": "Min",
    "8141": "atr",
    "8142": "\u2581Hal",
    "8143": "delete",
    "8144": "odo",
    "8145": "\u2581n\u00e3o",
    "8146": "\u00e8ne",
    "8147": "\u2581calculate",
    "8148": "Json",
    "8149": "keys",
    "8150": "\u043d\u0435\u0439",
    "8151": "\u2581hence",
    "8152": "\u2581ow",
    "8153": "\u2581Lib",
    "8154": "eno",
    "8155": "\u2581Love",
    "8156": "osi",
    "8157": "wide",
    "8158": "\u2581score",
    "8159": "full",
    "8160": "\u0432\u043e\u0434",
    "8161": "\u2581determine",
    "8162": "\u2581spaces",
    "8163": "\u043b\u043e\u0432\u0430",
    "8164": "\u2581peut",
    "8165": "\u00e9ral",
    "8166": "\u00f3\u0142",
    "8167": "\u2581appoint",
    "8168": "\u2581Tw",
    "8169": "<?",
    "8170": "\u2581Order",
    "8171": "\u2581hop",
    "8172": "random",
    "8173": "cache",
    "8174": "\u2581destroy",
    "8175": "\u2581race",
    "8176": "Tag",
    "8177": "\u2581rid",
    "8178": "\u2581negative",
    "8179": "Car",
    "8180": "ensional",
    "8181": "dk",
    "8182": "\u2581cro",
    "8183": "\u2581THEN",
    "8184": "\u2581$.",
    "8185": "ensk",
    "8186": "NE",
    "8187": "HO",
    "8188": "\u2581kle",
    "8189": "ospital",
    "8190": "kte",
    "8191": "f\u00e9rences",
    "8192": "udes",
    "8193": "IR",
    "8194": "otion",
    "8195": "\u2581Real",
    "8196": "\u2581Februar",
    "8197": "\u0438\u043d",
    "8198": "\u2581Old",
    "8199": "\u043a\u043e\u0433\u043e",
    "8200": "leich",
    "8201": "\u2581\u0440",
    "8202": "\u00edan",
    "8203": "\u2581\u0433\u0430",
    "8204": "cide",
    "8205": "lab",
    "8206": "\u2581pull",
    "8207": "\u2581'/",
    "8208": "Long",
    "8209": ",$",
    "8210": "\u2581appropriate",
    "8211": "\u2581\u0431\u044b\u043b\u0430",
    "8212": "f\u00fchr",
    "8213": "\u2581Media",
    "8214": "\u2581manner",
    "8215": "\u2581\u0413\u0435",
    "8216": "description",
    "8217": "Bean",
    "8218": "\u2581Lar",
    "8219": "'];",
    "8220": "\u2581relation",
    "8221": "\u2581Sorry",
    "8222": "har",
    "8223": "cpp",
    "8224": "\u2581Ko",
    "8225": "\u2581execution",
    "8226": "inos",
    "8227": "\u2581bul",
    "8228": "grade",
    "8229": "\u2581Mu",
    "8230": "\u2581pil",
    "8231": "writ",
    "8232": "ifications",
    "8233": "inese",
    "8234": "\u2581Phili",
    "8235": "dx",
    "8236": "\u2581leading",
    "8237": "\u2581Journal",
    "8238": "oved",
    "8239": "\u2581contro",
    "8240": "\u043d\u043e\u0432\u0430",
    "8241": "Yes",
    "8242": "\u2581channel",
    "8243": ")),",
    "8244": "isten",
    "8245": "aka",
    "8246": "ToString",
    "8247": "mas",
    "8248": "\u2581ett",
    "8249": "\u2581forces",
    "8250": "ulations",
    "8251": "\u2581Call",
    "8252": "\u2581explanation",
    "8253": "oring",
    "8254": "ATA",
    "8255": "chter",
    "8256": "when",
    "8257": "VC",
    "8258": "\u2581Jahrh",
    "8259": "Case",
    "8260": "\u2581commands",
    "8261": "\u2581rich",
    "8262": "bus",
    "8263": "Fe",
    "8264": "mbox",
    "8265": "\u2581recon",
    "8266": "\u00f1o",
    "8267": "\u2581shape",
    "8268": "owy",
    "8269": "entry",
    "8270": "itable",
    "8271": "\u2581election",
    "8272": "\u0454\u0442\u044c\u0441\u044f",
    "8273": "\u2581prep",
    "8274": "v\u00e1",
    "8275": "\u2581infin",
    "8276": "lot",
    "8277": "\u2581books",
    "8278": "\u2581USA",
    "8279": "\u043b\u0438\u043d",
    "8280": "\u2581pom",
    "8281": "\u2581nas",
    "8282": "\u2581tags",
    "8283": "\u2581executed",
    "8284": "aille",
    "8285": "lung",
    "8286": "\u2581JavaScript",
    "8287": "\u2581ball",
    "8288": "\u2581ainsi",
    "8289": "\u2581Pri",
    "8290": "{$",
    "8291": "\u2581UN",
    "8292": "\u2581Ram",
    "8293": "\u2581hear",
    "8294": "\u2581Ubuntu",
    "8295": ">();",
    "8296": "\u2581pure",
    "8297": "\u2581embed",
    "8298": "a\u00e7\u00e3o",
    "8299": "controller",
    "8300": "\u2581married",
    "8301": "\u2581Fol",
    "8302": "famil",
    "8303": "\u2581prec",
    "8304": "\u2581recurs",
    "8305": "pad",
    "8306": "istration",
    "8307": "\u2581respectively",
    "8308": "[$",
    "8309": "autor",
    "8310": "\u2581grav",
    "8311": "iera",
    "8312": "azioni",
    "8313": "\u2581Bul",
    "8314": "\u2581Australia",
    "8315": "mond",
    "8316": "\u2581Tro",
    "8317": "\u2581Ele",
    "8318": "packages",
    "8319": "msdn",
    "8320": "\u2581Als",
    "8321": "\u2581przy",
    "8322": "ART",
    "8323": "\u2581charge",
    "8324": "\u2581applications",
    "8325": "Unit",
    "8326": "aren",
    "8327": "\u2581sudden",
    "8328": "ometer",
    "8329": "\u2581dot",
    "8330": "acji",
    "8331": "\u043a\u0442\u043e\u0440",
    "8332": "imin",
    "8333": "ening",
    "8334": "\u2581donde",
    "8335": "\u2581Ho",
    "8336": "tree",
    "8337": "mb",
    "8338": "\u2581drag",
    "8339": "aje",
    "8340": "\u2581invalid",
    "8341": "\u2581finish",
    "8342": "laim",
    "8343": "\u2581feed",
    "8344": "\u2581Nap",
    "8345": "room",
    "8346": "images",
    "8347": "\u2581\u0441\u0430\u0439",
    "8348": "\u2581succ",
    "8349": "iffer",
    "8350": "\u2581a\u00f1o",
    "8351": "\u2581cual",
    "8352": "\u043c\u0435\u0440\u0438",
    "8353": "DR",
    "8354": "\u2581Bilder",
    "8355": "\u0431\u0440\u0430",
    "8356": "rait",
    "8357": "pan",
    "8358": "\u0435\u043d\u044c",
    "8359": "\u2581distinct",
    "8360": "\u2581Kn",
    "8361": "\u00f6nig",
    "8362": "anced",
    "8363": "\u2581loading",
    "8364": "\u2581Techn",
    "8365": "\u2581Sel",
    "8366": "mus",
    "8367": "\u2581rail",
    "8368": "\u2581student",
    "8369": "\u2581notice",
    "8370": "\u2581sla",
[...]
